
/**
  ******************************************************************************
  * @file    network_data.c
  * @author  AST Embedded Analytics Research Platform
  * @date    Thu May 26 19:39:47 2022
  * @brief   AI Tool Automatic Code Generator for Embedded NN computing
  ******************************************************************************
  * @attention
  *
  * Copyright (c) 2021 STMicroelectronics.
  * All rights reserved.
  *
  * This software is licensed under terms that can be found in the LICENSE file
  * in the root directory of this software component.
  * If no LICENSE file comes with this software, it is provided AS-IS.
  ******************************************************************************
  */
#include "network_data.h"
#include "ai_platform_interface.h"

AI_API_DECLARE_BEGIN

AI_ALIGNED(32)
const ai_u64 s_network_network_weights_array_u64[ 5097 ] = {
  0xbe1d723fbd8878e5U, 0x3d8c9d343dc6ba91U, 0xbdbad160bd4e0dc1U, 0x3a81cbc13d7f7255U,
  0x3da105713dfb3328U, 0xbde1b0363cfa0400U, 0xbdeb5d7dbbea85f9U, 0x3d84b3bc3d7fa277U,
  0x3c90df7d3cbe3a40U, 0x3d5b330bbdec4c2fU, 0xbd2272673d892474U, 0x3c967a3b3d3fe240U,
  0x3da69d42be079b89U, 0xbd065556bda92c8aU, 0x3e1671ea3d025c4aU, 0x3df4a56f3d83f115U,
  0x3dee2011bd2b6561U, 0x3dcdf479bdd1077bU, 0x3d71ae7e3c2e6883U, 0xbbc714fa3dfb8da7U,
  0xbd35d1fbbcc38f6eU, 0xbd38a36fbdf482d5U, 0x3db5e14dbd95c286U, 0xbcd2b117be0571f8U,
  0x3d65333cbde6501dU, 0xbde4f8223e229820U, 0x3adea303be057378U, 0x3da3e149bdab4f8cU,
  0xbd3b52aabce1906aU, 0x3e2673d03d363e29U, 0x3d1ea407bca5e8a6U, 0xbd81d8213cf6af8bU,
  0xbd9d7888bd4805c0U, 0xbd88ce0abe09de72U, 0xbdf405913d6c0166U, 0x3e0589bc3d134febU,
  0x3d697ad3bda994a5U, 0x3cd68f773de64522U, 0x3d8d135dbe0a21dfU, 0x3db52993bde3a160U,
  0x3dab8c943de816b7U, 0xbc21ff36bdc19913U, 0xbd3925debd1e0c8bU, 0x3dd43fb63df028deU,
  0x3df855533d294cb0U, 0xbd168529bda66458U, 0xbde7de193df15481U, 0x3de38920bdc72ee0U,
  0x3dd3954b3dce7146U, 0xbdb75f1ebbdf26a4U, 0xbce31f34bd996f59U, 0xbde176c83d6675a0U,
  0x3ded14853e194a70U, 0x3dd4d0923da12df0U, 0xbd29c307bd16de28U, 0x3ba196d1bced6af3U,
  0xbb1f07fc3de3237eU, 0x3d0b45f7bde8aa7bU, 0xbd9fcf233df67f94U, 0x3e14c999bdd42260U,
  0x3ad8a5c9bc5cbd56U, 0x3d83d1953a91d84dU, 0xbd9ffcd5bd852b43U, 0x3d7869dd3dcd23cdU,
  0xbd22ca043df778c1U, 0x3dae8c0a3dd25a02U, 0xbd7f6c6bbbb8034cU, 0x3df4169a3de7535fU,
  0x3d53a1fbbd0b98e4U, 0x3cbd4d6dbde0e412U, 0x3dd9cc8b3d8a29e6U, 0x3e257e5dbd96ee6dU,
  0x3d25fd26be025077U, 0x3de41f323e1d3a15U, 0xbd037a12bdfd6668U, 0xbc0cac633dac93bbU,
  0x3dda04c93cac8011U, 0xbd245435bd551cafU, 0xbde1b3b63d92c77bU, 0xbc4cb7cb3e159ca1U,
  0x3ddef20e3da7f747U, 0x3ddec3773d7fb797U, 0xbdebce893d83c0aeU, 0x3d5ee709bd5ab290U,
  0x3d2433473d6aadc2U, 0xbd825f113d7d47a7U, 0xbda98d02bda35a44U, 0xbdd4b9d7bd2e8584U,
  0xbdcc9cd13e151448U, 0x3c8785893c3dbed0U, 0xbd6bb3bbbd95e544U, 0xbe1e3f373dacd442U,
  0x3b35420b3c9dc15fU, 0xbd10d3acbd2483b9U, 0xbdd6588a3d79f4d1U, 0x3e3cc0153d9ce44eU,
  0x3c6549a1bde3bfaaU, 0xbce698873cd420beU, 0xbd8c4393bd92947cU, 0x3cf4d2c0bd39f3e6U,
  0xbdd75eaf3d1c7679U, 0x3d07af5d3df6fb97U, 0xbe015bee3d06e178U, 0xbc8a45e93e3b80d0U,
  0x3c9c26763d54465dU, 0xbd8889f4be2324edU, 0xbe243997bc3760d4U, 0x3e32bb9e3dbad432U,
  0xbca4b6f03daafa34U, 0xbdb76dcb3d3203efU, 0x3dcce23cbddf2566U, 0x3dd0a944bdb9c47fU,
  0xbdb46256bd6c0e6fU, 0x3cb2c1883df1a650U, 0x3daad91fbd65a4a0U, 0xbc2742c93e0b5acdU,
  0x3c31a2b13cb759a6U, 0xbe18f79ebdacd214U, 0xbd0f8e5b3e380d37U, 0xbd6c58c03cf32c15U,
  0xbcbb6e4ebd5556cdU, 0xbd746a8b3e1214d1U, 0x3d65d1433da5aa3cU, 0xbccff742be33ea79U,
  0x3d6e54c2bd9f5c84U, 0x3e1cfbecbd2fa3a4U, 0x3d8985f7bdf1ee2cU, 0x3d303eafbc36e3d0U,
  0xbd582a77bc56fdf4U, 0xbd67599fbe1940c3U, 0xbe2d8774bd3083e5U, 0xbd73c105bc03c920U,
  0x3d6913bdbcf529abU, 0x3b95eb68bd9d1686U, 0xbc80b00ebe0dbbacU, 0xbd676469bc39fd30U,
  0x3d436ca6bd848637U, 0xbac7b0b83cb7f3dfU, 0xbd6d38ffbe1a0436U, 0xbe2f6e673dc9ad46U,
  0xbd81d523bcb42afcU, 0xbdbd03e1be3064a3U, 0xbde501e83cdabe96U, 0x3b97394abda82121U,
  0xbdf477873d6cf1e9U, 0x3ae3bba2bcce8f9aU, 0xbdb0eed83d5c63aeU, 0xbd1bb4ba3d7001acU,
  0x3ae931f23da45797U, 0x3db0ce34be42eba0U, 0x3dbb4683ba6d87ebU, 0x3dccffe1bb8068a8U,
  0x3daab06ebc7fb480U, 0xbcd9dc45bd63e70bU, 0xbc81715b3dcf03f9U, 0xbdc3a769bd296888U,
  0x3e1fca16bc9c0578U, 0x3c0628c23c1b0a0aU, 0x3da04798bc7d3371U, 0xbbbd8ab03df8bbb2U,
  0x3e15bc2fbdb7c236U, 0xbd5194aa3be63f44U, 0xbcb332ef3e1af01dU, 0x3da95a4c3d569720U,
  0x3d323c413c0029acU, 0x3da3170fbd7b3f48U, 0x3e1aa9a83d9e84e6U, 0x3d70ac8bbd2811ffU,
  0x3d3f49e73b25a43aU, 0x3b34b49dbd1f3ed2U, 0x3b23a1eb3bd0e309U, 0x3e14af0ebdcf1459U,
  0x3d0b2226bdca2e65U, 0x3d7899d7bd399222U, 0x3c2abb843d5092c8U, 0x3da09cc63d869202U,
  0xbcbaf37d3e151e98U, 0x3e2591e3bd80d159U, 0x3d91fec03e0f3ed8U, 0x3ceaac373d1bc034U,
  0x3dedb4953bd9abd5U, 0x3e15b666bdfa0056U, 0xbd5266f83dc5fb9cU, 0x3dbed55d3dd9dcbfU,
  0x3de46e4cbdc9bec5U, 0xbdd5cfdcbdbb6dd7U, 0x3d0cb9e9bd69a1dcU, 0xbdfaea59bd8de347U,
  0x3dba1a633dc1ebd9U, 0x3d8d4de63de1a79eU, 0x3da980dabd739b70U, 0xbc175f843d1c6428U,
  0x3d92a9043dc39397U, 0xbda091b33d3fdf52U, 0x3d8e87bdbc2eaef2U, 0x3d58e406bd942344U,
  0x3d7fea153d575e41U, 0xbccbb4903e2d87efU, 0x3d625f733dfa2f88U, 0xbe0338f83e0d17f5U,
  0x3c64829cbc9734f7U, 0x3e436018bcf4f71fU, 0xbce78ce9bdac81f5U, 0xbda561463d69c0feU,
  0x3da7116e3cef6db0U, 0xbc331477bd950257U, 0xbd2c7e77bc5fc887U, 0x3e1644873e1133d9U,
  0x3ca71b323d41bc25U, 0x3d999c523e477a7dU, 0x3e0dd704bdca2539U, 0xbd31fcc2bc8a0670U,
  0x3d87dc4d3e45af95U, 0x3e49b2d7bd6f5e48U, 0x3d2a2bce3e077360U, 0x3d4377ec3d896700U,
  0x3df790d83dcbea05U, 0xbd759b4f3c1eeeacU, 0xbbd33267ba72908fU, 0x3d8453e43df656d5U,
  0x3dda33edbd8c84a7U, 0xbc44322e3e000f20U, 0x3e1c00fabde80c51U, 0x3d2e0a18bd99b239U,
  0xbda63cc83e20ea28U, 0xbc9ed1bf3d482eecU, 0x3e1efa853c7da9b7U, 0x3d90042d3e258aa5U,
  0xbc46d35f3db34895U, 0x3d9925bcbdd6076fU, 0x3c347ad13cd7264bU, 0x3dfcc6a0bd81e325U,
  0x3bcb63ef3bf661dcU, 0x3e02ec9b3d8d191bU, 0xbd961ff93dacbe6fU, 0xbd63b2a53dbd8e66U,
  0x3db87be03d41f88aU, 0x3e1d4113bd08dcfaU, 0xbdafa80fbda9522bU, 0x3d9ae1983d9a53ccU,
  0x3d950fc93c501a64U, 0x3cd0c5ea3dd58ac5U, 0xbbc086fe3d88bfcfU, 0x3e00f5dabda7aabbU,
  0xbdb0dc073dbbef04U, 0x3dbbdc5fbd86d788U, 0xbbd0f96f3db5037aU, 0x3d21aebb3e070b70U,
  0x3dd7ae6d3e3637c0U, 0x3e346c44bc987e0bU, 0x3d7dc6673d1d0936U, 0x3d07339bbb4268d3U,
  0x3e18e27dbc95e1a9U, 0xbde8533f3e0d0677U, 0x3d70c7ebbc066e62U, 0xbc45d7053d28ffd6U,
  0xbc3263f8bd964acfU, 0x3de0528b3dae79b2U, 0x3d63b70bbd27e6d8U, 0xbdbbc3323e2998acU,
  0x3d32cc513d3238b7U, 0xbb7fa351bde7ba51U, 0xbd9eeecab8292b74U, 0x3d7a57533be6abd3U,
  0x3c72f84fbe224976U, 0x3cab61703dec2ebaU, 0xbd4eb9f3bda10f4fU, 0x3dd28485bd5057b9U,
  0x3d14ea893dec5bffU, 0x3dc5432ebddfce1bU, 0x3d2c5dd5bd89b142U, 0xbdc9d2cb3d82df50U,
  0x3e04620b3cb7a60fU, 0xbddf2d06bddd8dd1U, 0xbe08f2dd3d268798U, 0xbda36164bd0f0f48U,
  0x3d3372853d473b67U, 0xbdfd096ebdd556d4U, 0xbd9c3becbd383240U, 0xbd9879e8bd18cdfaU,
  0x3d25f844bdc0455eU, 0xbd12d467b9822c46U, 0xbe0019883ca4e388U, 0xbe2725683e098477U,
  0x3ca9ee9d3d153cd0U, 0xbdd72a27bde51d18U, 0xbdd5fa453af0cce9U, 0xbca0a2f5bdf6dcf8U,
  0xbb3334eb3d9a8e81U, 0xbdeb70c43dd6bb99U, 0xbc593c8abcbc6db3U, 0x3d442038bdd4c59eU,
  0xbdd776f93d82e5bdU, 0xbddef6463d934c35U, 0xbe06dce2bd878689U, 0xbdce70593d06d2d7U,
  0xbd6078e1be372fa2U, 0xbe28ff0cbbbcb229U, 0xbce0dfecbd925c4aU, 0xbce900cfbd2fcf58U,
  0xbc798a9cbd4d8270U, 0xbe069a403d4c59c8U, 0x3dfe30f4be160affU, 0x3b778ce8be04be76U,
  0x3d9771cd3cbb08f5U, 0x3e012453bde44c2cU, 0x3c060b853d081b38U, 0xbdf393efbd92246aU,
  0xbdc61c77bd7ba3f7U, 0xbd9f7ee4bd3b6787U, 0xbc56fdfc3dc5bfbcU, 0x3e0e7d04be2bec1cU,
  0xbd5cc9b7bb4ed154U, 0xbd5f8cf7bc2c3c10U, 0xbd4b84a63c5356a7U, 0xbaa7f359bd0fd2adU,
  0xbcd69dc03de33f86U, 0xbd86ae18be049662U, 0xbdb6269c3d607936U, 0xbd1efb16bc368256U,
  0x3dd90f6cbe34b298U, 0xbd085b88bd84e3e9U, 0xbd9f130fbd876f3aU, 0xbd5c4a21bd54749dU,
  0xbe330f09bce51998U, 0x3dab8c983dea2019U, 0x3d8d5c703c27224bU, 0xbb996681bd607cbeU,
  0xbd7d7c08bdf787d2U, 0xbe00fbaebe35be4fU, 0x3d7177223c9688d6U, 0x3da60ee13d8e1be2U,
  0xbbab04a4bcbf449fU, 0xbdcb1e69bd788eafU, 0xbe0d31c53e00dcfaU, 0xbd5b263f3cc464f8U,
  0xbd5242943d12ba2cU, 0xbdd4bc39bd445944U, 0xbd294d6ebe4508d3U, 0xbdc3f1ffbb8e637aU,
  0xbdf4e950bd275cb2U, 0xbd8d4787be202750U, 0x3d940883bb9ab81eU, 0x3d80e7adbd26977eU,
  0xbdb1a9adbddf93a4U, 0x3ce99415bd0d9b9eU, 0xbc2c546cbdab2af9U, 0x3d8f3384bc9ec4a6U,
  0x3d581fd63d98dc81U, 0xbe1d3594bbe97798U, 0xbd739faf3c6fd4aeU, 0xbe23dced3d53512bU,
  0x3de182603c316458U, 0x3dc0cbf2be2ca5acU, 0xbe30a230bdbc6f5eU, 0xbdfeea05bd0b52ecU,
  0x3d8385b4bd353d63U, 0xbdbeda9f3dd7bff2U, 0x3da92f2aba954c3eU, 0xbd610375bdec4c29U,
  0xbc327c61be1cc444U, 0xbd910eb2bdc99db7U, 0x3dea05063cfe0603U, 0xbe08893e3de155cbU,
  0x3d1a7a6cbdc9a45dU, 0x3d1ebd1dbd9d1f09U, 0xbd4e23fbbde06d3aU, 0x3db955dcbbab631eU,
  0x3d8b131e3ccbfbadU, 0xbcf60293bd05538eU, 0x3d9c3143bd9645b2U, 0xbcf323ccbd28b191U,
  0xbd5453ef3d89e588U, 0x3d6705093cef9f63U, 0xbdb1505ebe29c139U, 0xbe1ed2b93d4b5bfdU,
  0x3dd1c6bfbc0c164cU, 0xbde30098bdee8849U, 0xbc84adf93c841b81U, 0x3dc3cccf3df1cdb9U,
  0x3d70356cbdc5224dU, 0xbd9635b83dcea63fU, 0xbdd40a043e031b9eU, 0x3da095bebc0f2913U,
  0xbe0764943c49d128U, 0xbd818d5f3ccb9465U, 0xbd1aa57cbe205a5fU, 0xbe38a6ecbe1c9b54U,
  0x3d65e91c3d6d2650U, 0xbd23d57cbe3a6f41U, 0x3ce1a63fbe110761U, 0xbd240127bcf05649U,
  0xbdd4d14e395250c0U, 0x3badfa4ebdcf629bU, 0x3d8456db3ca522d5U, 0xbd270812be106e70U,
  0xbe184ebbbe0ebb91U, 0xbde25712bdbe87b7U, 0xbb12db79bcbee41bU, 0xbe05d4163cc4e670U,
  0x3da0cd09bd975f5cU, 0xbdaec69f3a857544U, 0xbe204b3f3e011d05U, 0xbe03c9f3bc9a9597U,
  0xbdb3e061bdeae942U, 0xbd949a37bdb963fcU, 0xbe03071abdf745c0U, 0x3cc0db0ebcab4712U,
  0x3db8cf05bdfe76ccU, 0xbd66d8b73b8a2cf2U, 0x3d1a022939ff5660U, 0x3cf5f3283dde03ceU,
  0xbe16c12b3c1cb6caU, 0x3de544ccbe1d63e5U, 0x3c4b7f9ebd9c4bffU, 0xbdd95cad3de3972eU,
  0x3df71d98be0f0c8dU, 0x3d95ab6cbddd7588U, 0x3d4d8e4c3da7f177U, 0xbc928216bdf6cdf8U,
  0xbd89ae88bd7738e6U, 0x3cef4ae73d81afbaU, 0xbd83f0ccbd82c82dU, 0xbdb6bea73d06cbb0U,
  0xbdfcdef83d049d6aU, 0xbd5b26f6bc17ed8eU, 0x3d4ab857bd9d4d6aU, 0xbe2a8e9e3d909948U,
  0x3d0e0507bda91e16U, 0xbd1660f53cadfc4eU, 0xbe029bc03dab3a66U, 0xbd8d39f0bb2293eaU,
  0xbe18fa5ebdb87f6bU, 0xbe0c73d7bc2974deU, 0x3c9d82d8bd06b16cU, 0x39acc568bc95e9caU,
  0xbe00d700bddda9a6U, 0x3de01be23d174c59U, 0x3c8fa6d8bd4d6ad6U, 0x3dd0b871bd17baf7U,
  0x3e06354fbd63b605U, 0x3da0debdbe04580dU, 0x3dbbd33bbc8d958eU, 0x3c903d693db3444aU,
  0xbe0b82593d5dd858U, 0xbddcb21d3e0fd6eeU, 0x3c0bf6403d250e8eU, 0xbe0bc08dbe25a8cdU,
  0x3da8d02abd7330beU, 0x3e16605ebdd7c4deU, 0xbcc870ffbe1a3b82U, 0x3ca21a2a3db2a3eaU,
  0xbdddb384bd8728fdU, 0x3dfbffdbbcfe99c5U, 0xbe35756f3cd5a672U, 0x3e0b36873de6718fU,
  0xbdc62a8abdb48662U, 0x3d0a4334bda13330U, 0x3d74af393d8a7d64U, 0xbdcd3ae73d409873U,
  0xbdc4fcab3d6de5aeU, 0xbd1892bd3d81fa0cU, 0x3ddde2a8be01b526U, 0xbccb0f1cbd710c85U,
  0x3cf6301e3d1458b2U, 0x3d1c844ebe1d573bU, 0x3d222f2a3e02e287U, 0x3d32f4b83d8386aeU,
  0xbdf5c688bd97d905U, 0xbdc2ae7f3d25f77bU, 0xbd3cf06abcebc758U, 0xbc62488dbe1979fbU,
  0x3d1495363c64adedU, 0xbc858136bdc02bd0U, 0xbcd6dd9fbe05d85aU, 0x3d3ce7e0bd8b5ccaU,
  0x3e08a6793da1793dU, 0x3cd7c155be0e6059U, 0xbdcaaf1abda2a50cU, 0x3cef3f793dc95354U,
  0xbdd5e60abd657f8fU, 0x3ce646613cfd60d3U, 0x3d98bdb5bd8854bbU, 0x3d8ec7cabd939c84U,
  0xbe01516fbd6775ecU, 0x3d227d4c3c27074fU, 0xbdad0bd7be1bbe33U, 0x3cb521303de4a69fU,
  0xbd4499433d72a88aU, 0xbe004e2c3db7a42cU, 0xbdd4018c3c17d4bbU, 0x3d885e2ebde0e2c0U,
  0xbe1470f73db6f3e9U, 0xbde1aa1fbd2b93a1U, 0xbd9d32913d5153e4U, 0x3dc6ead9bd60fa6aU,
  0xbdfb5f8d3e093d52U, 0x3ded38163dc7d0e2U, 0x3c8879b8bd880c75U, 0x3d8cef27bdee5b11U,
  0xbde06847bb80ed36U, 0xbe1227f1bd0d9c7dU, 0xbe1c3ebcbdd612c8U, 0x3d8e9849bdbb8eecU,
  0xbe05406cbdf3527bU, 0xbe25e7c7bd0329d1U, 0xbdbb81493d92fd8fU, 0x3d981e7c3d420fbeU,
  0x3d2749b23de82d0bU, 0x3d8d05b03d9835a0U, 0xbe2cb027be0bf759U, 0x3cf19451bdc2c814U,
  0x3cf94fbbbdc7b22aU, 0xbe0acbbebd594844U, 0x3d5e7ba8bc8d9ccdU, 0x3c9865cdbe01d7a5U,
  0x3d4082ac3bfc197cU, 0xbe0cdfb63d12e54eU, 0x3e0b8e73be399dc3U, 0x3d26d412bde9e152U,
  0xbddc3e0cbd4c0574U, 0x3df9ee783d4d4fd4U, 0xbe30bf2a3b1f3f9aU, 0x3d82de7dbd887505U,
  0x3cc10235bdece7fdU, 0xbdc60c04be204c90U, 0xbe0818783dc02556U, 0x3d5866aabe22918aU,
  0xbca6a9e1bcdecf71U, 0xbd64ded1bceeb434U, 0x3dafbb7b3c6a7288U, 0xbd9dd005bd3c1a34U,
  0xbd81834cbdd558c8U, 0xbd0e8ad7bdc377d7U, 0xbd3236df3daa4500U, 0xbd48fc8ebe0aa941U,
  0xbdd205a43d802bb1U, 0xbd56bbbb3dcb5d87U, 0x3d091c883dc95e0fU, 0xbd01e23ebe194443U,
  0x3d8bdf1e3ddf4cf7U, 0xbd7048b0bdd18ea3U, 0x3d028f13be2ee91aU, 0x3bb32afb3de49ce2U,
  0x3d5031e43d61aa7bU, 0xbe0b135d3cbe8696U, 0x3c3324a2bdb4582cU, 0x3b4e636bbc9a305aU,
  0xbc96497a3d5d37bfU, 0xbccbc0f83d0004fbU, 0x3b9406e9be0dc6c2U, 0xbe15b6bfbda0d2beU,
  0xbd247bc33df9a9ceU, 0x3b44f876bd8ba0a6U, 0xbd2246033d0d937bU, 0xbe27bd97bdd44b3eU,
  0x3dd523423d188d2eU, 0xbb5d39d23db0144dU, 0x39d2c7a83c2e5f3eU, 0x3d98cd093da6e166U,
  0xbcb3be773d20c706U, 0xbe0cdea43d2b690fU, 0x3e02ad35be1d041cU, 0xbd537356bd18c63cU,
  0xbdf1a0c43d30840aU, 0x3e25c4793cbc2fe5U, 0xbe02c8de3de6e1c2U, 0xbd6d09b5bd690de2U,
  0xbd7c7da4bdcb8ba3U, 0xbd0de8f5bdf7feaeU, 0x3d968e903dbd6386U, 0x3dc1ebb3bd34f987U,
  0xbdc035d13de0201bU, 0x3d284fa33d8d89d9U, 0x3e1f69c13d35d3dbU, 0x3db8568a3b9b381aU,
  0x3c1141b4bd6d4015U, 0xbb1dcb9e3d1f6fe4U, 0x3de0795abd8722b2U, 0x3c02ed4abd22e632U,
  0xbdb8df64bdb5d7f4U, 0x3ded3a50bdbd244eU, 0xbcfae1543e17449fU, 0xbd8bb80b3c92b36bU,
  0x3d186c29bd8761c6U, 0x3ddea4f5bd3abaadU, 0xbd3631dbbd411f5dU, 0xbc117f80bdd85087U,
  0xbc40ce753d7ad09cU, 0x3d0a9a57bdc026d7U, 0x3d5088343d5dce6bU, 0x3e07e2abbdb659b0U,
  0x3dd5ce6f3dddd3d8U, 0x3de0fda33d2d138cU, 0x3e0760293dd410a4U, 0x3dbc45503de7b264U,
  0xbd204a823dc4f695U, 0x3db33d083e030ecaU, 0xbd5656f5bcaa4de5U, 0x3d94a9423d5482a7U,
  0xbe0577a5bdf43993U, 0xbbe7e7743b2ec675U, 0x3d7cb439baf979c9U, 0x3d01674cbd4da425U,
  0x3dc355c8bd775691U, 0xbd64a6493d50fcccU, 0xbd219cbf3dc69227U, 0xbd98e87fbd114af6U,
  0xbd59252cbe338e4eU, 0xbe41ffbd3da91ed8U, 0x3da99814bcbc10f4U, 0x3dd89f12bd6441beU,
  0x3d8d1e473d007cafU, 0xbcec1274bd9bb6f1U, 0x3c0a32983daa0e60U, 0xbe337709bd835f37U,
  0xbd20f1763cf296d8U, 0xbdbd6fc6bdab7cfdU, 0x3d42421f3daeabb0U, 0xbd7ab5eb3b50a892U,
  0xbe1b2f173d6fb8a7U, 0xbe1df04f3dbc1afaU, 0x3d74aba73daa3fe8U, 0xbe13c802be082069U,
  0xbe257da6be05887cU, 0xbd1e028bbd60e1efU, 0x3ddc21d33d24bf2aU, 0xbda519e5bdabfed0U,
  0xbe0b53cabd3df09fU, 0xbdecfd4cbe11d51cU, 0xbc87f5bfbc06b72bU, 0xbd8342b3bd509a95U,
  0xbcd0c2bf3cabcc18U, 0xbe15e02b3cac05aaU, 0x3b989f6e3c9fc1b9U, 0xbe0324f8bdb8391eU,
  0xbc7b6f29bdca43dfU, 0x3cba93303d82dcd3U, 0xbd0bd7f7be15b7bfU, 0xbd7d23a33d8aa136U,
  0xbdcafa4fbd279ff8U, 0x3b7d6e6c3d2b9261U, 0xbcad39d9bda25df0U, 0xbb5dd6e3bda15300U,
  0x3d4f90a3bcb8610bU, 0xbd90df1b3d6670d0U, 0xbdd060a03dda7cd5U, 0xbd98f1143db1c977U,
  0xbd3740cabdb35f00U, 0x3d8dea433df86476U, 0xbce58bc9bd9e6164U, 0xbd19af19bddf26fdU,
  0x3d6da91d3db71be1U, 0xbdd039933d700c23U, 0x3dbbe16d3dfb584eU, 0xbdf795b8bc906124U,
  0xbe07f0443c74e040U, 0xbc455d38bdb89be2U, 0xbd147b2a3da84be2U, 0x3bf0e228bdd371e6U,
  0xbe0d02c1bd9a0d6bU, 0xbdf08b74bcdcfe55U, 0xbdf65f003ce80c16U, 0x3dd3ba743d93210fU,
  0xbc9aa727bdeccb85U, 0xbd9c5f823dc8d425U, 0xbd06dcd7bd7b63c9U, 0xbe006c553da9d815U,
  0xbdb9a0afbe160e9fU, 0xbe1a1694bd0155a4U, 0x3de45828be2021f5U, 0xb957c7e0bdfe7011U,
  0xbd3e3afc3d4679c0U, 0xbd7a204bbcbb1bceU, 0xbd95bfb5be0caf9dU, 0x3dc80b333db5db48U,
  0x3dba7a143d1945b3U, 0xbdb8a3b83dcff9b9U, 0xbdacf4cfbe071a22U, 0xbc4b756abdf49acaU,
  0x3d0bbcf7bd01c830U, 0xbbeb351ebd1d2a0aU, 0xbd3209c03dbdc1f4U, 0xbdfacbc4bde77048U,
  0x3ccb4f38bd0dcdbeU, 0xbcfda7ea3d10730aU, 0x3d807106be0bd258U, 0xbe083773bdaa4b2cU,
  0x3daba5083da15540U, 0x3e01fc7a3d399293U, 0xbe1da410bda40f79U, 0x3da27f51bc2c25aaU,
  0x3df3992a3de922ceU, 0xbde0e33e3cc5fb66U, 0xbd99bff53e01b0ceU, 0x3de5e479bdc14eb0U,
  0xbdd7e4c8bc6f80a5U, 0xbdf9d53abdfc3ba0U, 0x3dc2466a3d98664aU, 0x3dd884923d2f92a3U,
  0xbafee2a4bce33f4cU, 0x3e037bfcbd3a5504U, 0xbdc75c64be3babddU, 0xbda3790bbdfa7090U,
  0x3d79ffcbbcd1de20U, 0xbdf59e603c8e2dedU, 0xbd88e6babd78eadbU, 0xbce7093fbe0e736aU,
  0xbd8b0e79bd99f834U, 0x3b21d61b3d81b8afU, 0x3d4849ccbd44fc83U, 0x3dbcb3e6bd75b2a7U,
  0xbc1b07f93d8e0d2cU, 0x3dd1e275be048e0fU, 0xbdc7b9793b6585cdU, 0xbe3e3d593db49b9dU,
  0xbd4eacc0bd9b0706U, 0x3d9019ecbcd0eba1U, 0xbd9bc075bd262142U, 0xbd923eecbde6842bU,
  0xbdccba2cbe3d8bbaU, 0x3d8faca4bc8cdf7eU, 0x3d07ee1f3d2cc484U, 0xbdb14d33be2ee174U,
  0x3d2fc389bcdcbef1U, 0x3cbfbdc0be121ba4U, 0x3d95744dbd9d5485U, 0xbe33b5a5bd135a1aU,
  0x3dcb126dbe06fd57U, 0x3d84386cbd8de41eU, 0xbe1060333d160493U, 0xbdd56ea9be0f2da4U,
  0x3b9a8299bd67ac4fU, 0xbe3172eebc7e775cU, 0xbd7d7105bca06e2aU, 0xbd32b1edbcb42f8aU,
  0xbdee438dbdbe11daU, 0xbd6427b4be0b2ae6U, 0xbdef2a77be286674U, 0xb90d7af03cfaf050U,
  0x3da474c83cd7f0c8U, 0x3ce4290b3ce5d5d8U, 0xbe05e543bcc8687aU, 0xbe108249bd92747bU,
  0xbdc1b562bdb2cf2fU, 0xbb0ed220be012f4aU, 0xbd950db7bdb71c2fU, 0xbe38dbcbbdcc156aU,
  0xbe2920bf3b694e3aU, 0xbc8f51363d81b5f3U, 0x3e0595a3bd55e14bU, 0x3d5f6f823a0b3c86U,
  0xbd7594f83e3ca5c4U, 0x3d6a42f1bdadabbfU, 0xbd981ffd3c80ab51U, 0xbd5edb63bc55f269U,
  0xbae4ec883b88ae2dU, 0xbccabc5ebb9ed34aU, 0x3d8731963e0c109cU, 0x3e225da1be01d9cfU,
  0xbdbb597f3da489ecU, 0x3e0c59c2bd23dfcaU, 0x3ce9e69d3d62569fU, 0xbe0df3a43dfa72f7U,
  0xbd71d6653d8752aeU, 0x3e3b7365bdd00200U, 0x3cb313963da7aea8U, 0x3d9658943e3a4383U,
  0xbd8e7a6abc3c39ddU, 0xbe3b07da3d0d21b3U, 0xbd50d1d53e1e2d9cU, 0xbd7f9842be2f0135U,
  0xbdb4530fbde4ecbcU, 0xbdf9ec9d3dccd8baU, 0x3d00f1f5bda0d54dU, 0xbe03ae30bcd198e5U,
  0xbd9910e53d15ece2U, 0xbd019142be07f284U, 0xbe06a643bd85a719U, 0x3d80749cbd6ea146U,
  0x3ddf9505be1f4766U, 0xbd015bd93cbb7158U, 0xbdc2961abce771e1U, 0xbd116e05bd342f94U,
  0x3d93449ebd689367U, 0x3d0b09d73d5dec5cU, 0x3e274704be024db4U, 0xbcb737683dd1d4f3U,
  0x3d2646a6bd82cde3U, 0xbc842c823d336fbaU, 0xbdfbe099bdbdfa1fU, 0x3de89c83bc55b2b2U,
  0x3dc46dbabe0388b7U, 0x3d8910613d9e9226U, 0x3e00e586bc401cabU, 0x3d26d5b6bdeb19b0U,
  0x3d8318e7bc9c0e39U, 0x3d981bbdbd2f9d7aU, 0xbd4ecab4bca41970U, 0xbde11c3e3c579da3U,
  0x3c8a9e4f3da267b1U, 0x3d0190efbc9b15f0U, 0xbdca50e33d18ec08U, 0x3da2b8cbbd1fbea8U,
  0x3d599acfbdc6b39bU, 0x3d08bfdbbdf5931bU, 0xbd7f205abcd97b18U, 0x3bb38fc73d6a8745U,
  0xbe0fd688bd29197fU, 0xbda3b5103da1cab7U, 0x3e254aebbe2f57a2U, 0xbdb258283bf8b2b5U,
  0xbd17c5973e20060bU, 0xbd881446be0cfa89U, 0xbe04662fbca4c228U, 0xbd4d15b03e3eed43U,
  0xbcf73c2c3d175e24U, 0x3cd2beacbdeffac8U, 0xbd9f72803dc5db25U, 0x3d74ecd2be3b6375U,
  0xbe1c5de13c088d12U, 0xbcdf1d283d7bf7faU, 0x3db92ef1bb0c5e52U, 0xbe282af13e0e9564U,
  0x3b4766793d2441dbU, 0x3e2275e6be3c9922U, 0xbe2c82563cad5f53U, 0xbd1891fe3cbb6865U,
  0xbbdab40fbd2bc664U, 0x3d9f48e8bd3cc5eeU, 0x3dacec723e40d4ebU, 0xbd4762813d394340U,
  0xbd2c56dd3dc1d223U, 0xbd958b013db5348cU, 0x3e1ea684be222113U, 0xbd4b8202bbca2659U,
  0xbdc815e43c6494a8U, 0x3d26ee2ebc96d658U, 0xbdcde515bdd7c67aU, 0xbcf871e23ca67148U,
  0x3e3c9ade3d97af2aU, 0xbe1827dc3d440779U, 0xbd95f8d53df63147U, 0xbc443532bd2728bdU,
  0x3da5b569bd8a6da1U, 0x3d53f60f3d9f3ee9U, 0x3d815bea3d595635U, 0xbe297b31bd7adcc3U,
  0x3d31c8493d41957cU, 0x3ddfbc65bc6d77e7U, 0xbe2223cf3d4371ebU, 0x3d0696f73d62b20bU,
  0x3d0fc488be054f2cU, 0xbbfa5d84bc58a965U, 0x3d9bd6b13dbeb9b6U, 0xbd632278bd6424adU,
  0x3afbaa113dd6d81eU, 0x3db1b8afbc123bb3U, 0x3ce5ad243d001be5U, 0xbe281a1abd20df7aU,
  0x3d63a4cbbd5b643eU, 0x3df15facbe35e454U, 0x3d637d45bd9f7212U, 0x3d3774ed3df32721U,
  0x3dd48665be1bf62bU, 0xbd1fba7c3b8ff6ffU, 0x3e028657bd6cd972U, 0x3d0e52e3be32d0acU,
  0xbcfc7ec13d9450a7U, 0x3dd3f2ba3db76773U, 0x3c0b521c3d6d966eU, 0xbd193ff2bc7453dcU,
  0x3d8012633b5bae72U, 0x3e001727bd555039U, 0x3d2eabbdbd3ca47cU, 0x3dc0dcdd3e19ac0dU,
  0x3e08b8c2bbf6361cU, 0xbcb49220bd17891dU, 0x3ca3a95b3e011620U, 0x3e08a8733d79589aU,
  0x3d82e127bda49f10U, 0xbddb36ca3e1bd752U, 0xbd99b68dbd9fe1c3U, 0xbe2efb9e3dfdeb17U,
  0xbc574bcb3dc9b7f6U, 0xbd5a59143d34736aU, 0xbdfd1cb0bddc6dc0U, 0x3d289f2b3e1bd7a5U,
  0xbd05d84dbe27a0b6U, 0x3d45db19bdb23dacU, 0x3d23fee33ddf5e43U, 0x3db3d204be08a542U,
  0x3d4a20453d35d6cdU, 0x3deece1abdb36f98U, 0x3cf1f875be19c2b8U, 0xbe08e1e8bd97813eU,
  0xbda4ff38bb35e2a2U, 0xbd050321bd9a87bcU, 0x3da96d153d2db835U, 0xbd76425d3c488981U,
  0x3d154e8dbb0f0dffU, 0x3d5419d4bda1ceeaU, 0xbdbb480f3df3ab98U, 0x3c5f38753ccb9c37U,
  0xb98f14b43da48f98U, 0xbd44b4053e212384U, 0x3d763557bcf9fb30U, 0x3e0a234c3d80dbbdU,
  0xbd6a7d9cbd318731U, 0xbc14595d3e2060eaU, 0xbd945c0ebdebc71fU, 0xbcbfbde1bd949372U,
  0x3e1780a23db79c7aU, 0xbcac68fe3dc9394fU, 0xbd23e7113c3d5585U, 0xbc5df3ebbd04dc73U,
  0xbcdebb5c3d2c8a75U, 0x3cbb1d2c3d44a534U, 0xbd6377c1bd875493U, 0xbb247085bddd6aa5U,
  0xbdbb70a63d29ca0fU, 0x3e008c173e18a5fdU, 0xbdc8f800bdd98237U, 0xbcbe748d3a85f47bU,
  0x3d5113203d08a888U, 0xbd03a2f03c91139eU, 0xbe025f893cd875bcU, 0x3ddd22ef3d30b509U,
  0xbd40fe59bc396b93U, 0x3dde14253d7090e7U, 0x3dc7d9fe3e22ff60U, 0x3d6d931f3e0e4c32U,
  0xbdfbbc9c3cb4524aU, 0x3e308ffbbb962edfU, 0xbd92e3bb3e12e353U, 0xba80ce5d3d304fc2U,
  0x3e1324b33cf8bd2aU, 0x3e0ecb983dc5e1edU, 0xbda9b9d23d3a74acU, 0x3e2efb86b886e0d4U,
  0x3cf4df513e147bebU, 0x3e0624353a380ebbU, 0x3dfc0a213c2100b1U, 0xbd5399103c686c06U,
  0xbd9255d1bd549c8dU, 0xbd3977883b5e1b86U, 0x3e0bf7363dda88d4U, 0xbd12535f3e17975eU,
  0x3d72d2383def212bU, 0xbd2d6364bd31b480U, 0x3dbfa1693e0f153aU, 0xbc4a02e93d782efeU,
  0xbc9ee23ebd60ac57U, 0xbc14b8453ce30609U, 0x3e1d5f273d567364U, 0x3d0d5c5dbdde2d50U,
  0x3dc211cd3e1eb40dU, 0xbc0a7abd3ccfb7dfU, 0x3d7af3b93b857aeeU, 0x3d1a6f59baac2866U,
  0x3d96fadb3d50f6b1U, 0xbdbf3fda3e057db9U, 0x3dc6d4f03e474919U, 0x3e2625bf3e14ad23U,
  0xbc354298bd8d5736U, 0x3a12ac783d7c60f4U, 0x3e0f678c3e1ff707U, 0x3c840b0e3d3155a0U,
  0x3e12a5bd3c6bfbf1U, 0x3e5080eebdc08394U, 0x3e09747a3de49d7dU, 0xbcf299c83c6b446eU,
  0x3c9ee9673c4c4f25U, 0xbdaebc673cbaf0d0U, 0x3e156ae93db18106U, 0x3df43639bda1f130U,
  0x3e20cdf03ddc5324U, 0x3deb783d3b1b80b9U, 0x3e40969e3d9d15d3U, 0xbdc71449bcc8ccc0U,
  0xbc7d2c143df669faU, 0x3e2e395bbda23dabU, 0x3d87db1c3c92b356U, 0xbcbf60b1bc5b47f7U,
  0x3dc7c3a1bdb72f96U, 0xbd4e19bc3e0ba38dU, 0x3d7b4560bd45724dU, 0x3a1493183d8f788aU,
  0x3d51a7a63d53a31fU, 0x3d216ed53e336c72U, 0xbd556533bd60ea9aU, 0xbc84138e3d64e3f2U,
  0xbd979f2d3dfbb9aeU, 0xbcd6b6a13c2a9019U, 0xbe16870cbd99f827U, 0x3e05110e3b8b5c66U,
  0x3de23e553d99eb08U, 0x3d963ea3bbd1e90fU, 0x3a9c529b3e19bc80U, 0xbd3127be3dda1f8bU,
  0xbe0553d13d986d26U, 0x3db1f73ebd97e981U, 0xbceed3903c8de17bU, 0xbd8acf1d3c21a4efU,
  0xbd5f63393d3a0144U, 0x3d8e6e1b3d3126c9U, 0x3dd764333e09ba45U, 0xbd51309fbd2b7fbaU,
  0x3e1f669f3e06b0e6U, 0xbd53e9033e1bb7afU, 0x3e0bed17bd155ea8U, 0x3d2d6202be10a2aeU,
  0xbe055c003e1d83b9U, 0x3df926d73c3a3065U, 0xbda826093bed84ccU, 0x3d1b039dbcbb37e8U,
  0xbc8db357bd133600U, 0xbcdc77183cabbf6bU, 0xbe0cd6043dd651cdU, 0x3db9585c3ddd539aU,
  0xbcc7ea71bd56b7fdU, 0xbd9567943db6439aU, 0xbd1276d33d8c80a7U, 0x3d9b30783cc7af24U,
  0xbac49027bd4124dfU, 0xbbde1000bd14fbbfU, 0xbdfd84123d679056U, 0xbdd3e76ebda15015U,
  0x3d16aff0bd95dc3eU, 0xbdafccc53d6eabe4U, 0xbdd59e45bb26d1daU, 0x3e03e7babe0e4f5aU,
  0xbd37bbcd3d71f8b7U, 0xbe2ae5103dce6b00U, 0xbd47ec6abe233b85U, 0xbd3e985a3c743741U,
  0x3d41c579bc3f9f82U, 0x3da286c1bdd3fe84U, 0x3d8fa678bded94e4U, 0xbe129ab73c603306U,
  0x3d2c32d7bdf5c3d3U, 0xbdccafaabe157015U, 0xbe12e0763da1b74eU, 0xbcbebc37bb0d4de9U,
  0xbe1a3a9c3cb96020U, 0xbd0a96e83d954be1U, 0x3d833ec23d94b209U, 0x3cd0845fbd68b799U,
  0xbcd97b073bf513cfU, 0x3ddc69e4bcc44309U, 0x3de26d3dbc4ff875U, 0x3d0980c43ddd50c4U,
  0xbdbb1e05bdeddcd5U, 0x3cb1e1eebdbfb090U, 0x3ce610bbbdfb2128U, 0x3dfd42a2bde0d237U,
  0x3d7535a4bddb182aU, 0x3d8ef0153cc27756U, 0x3dcc34af3d64419cU, 0x3de093223cbb117bU,
  0x3c9c04443ca0a6e4U, 0xbcce71fa3d21dadfU, 0x3e1104c93dadc449U, 0xbd4bc1a8bdbd1c2cU,
  0x3cda68d2bda19498U, 0xbdec3de23d8009e9U, 0x3d91ec4bbdde34cdU, 0x3d3d607e3de0a3cdU,
  0xbd9fbaa2bd2106b1U, 0x3d8f576a3c1d277cU, 0x3de0eff93e089682U, 0xbd1d0f193d4685e3U,
  0x3cb2241c3dd1c269U, 0xbe026f7d3ce77c0bU, 0x3c8c4d37bc25be0eU, 0xbdd338563d901871U,
  0xbd94d6083dc252ffU, 0x3d80b2fcbdcd4b02U, 0xbdecafe1bd9e9b42U, 0x3df82a78bc82e362U,
  0x3e05269ebd71722aU, 0xbd2acf9cbd1c371cU, 0x3d0776303bdea9daU, 0xbdd100bd3c98adfcU,
  0xbdb6a06b3d018e1dU, 0xbc61026a3def90fcU, 0x3e241c38bbf89f69U, 0x3da735b23ce81507U,
  0x3d8e40793e1cd12aU, 0x3e1a6e203b9add1aU, 0xbdb46dbb3d88065fU, 0xbdf7b9b9bd340413U,
  0x3db5fa32bdb802f5U, 0x3de7b181bcb2a260U, 0x3dfd1504bd38bb80U, 0xbd6f81693d474cb8U,
  0xbc02f3cd3d9f5205U, 0xbd8c38a7bd7530e9U, 0x3cac28723dd4a700U, 0xbdb2f5853d79c83eU,
  0xbda0a041bccc6919U, 0xbc9333d53cc0f314U, 0xbd26a5eb3d333010U, 0x3de321bebd8210f6U,
  0xbd56ff72bcda8e70U, 0xbd9fcf413d3c255bU, 0xbdb905603ce92c79U, 0x3e152ca63dabc105U,
  0x3d6f393a3e0d50b6U, 0x3d9bb3ac3c8b5795U, 0xbd3379323c9e8551U, 0xbe025acabd92eaa9U,
  0x3de64ec93e05126fU, 0xbd48933ebce1c382U, 0x3dff17c7bd9e8200U, 0xbd9f4deabcd57820U,
  0x3df71b4bbdde5a10U, 0x3dd09aef3d8031e9U, 0xbd88e4213d5095aaU, 0x3dbb9fd5bd827fd5U,
  0xbdc5b46c3dd57d54U, 0xbda77287bd965c0aU, 0x3df7724c3dfa1e62U, 0xbc8f82f6bdd68172U,
  0x3dde9e89bc115ce4U, 0x3e0b3a6b3de06c18U, 0x3c82c47bbce1725dU, 0xbc54918e3e13a740U,
  0x3e0d99d7bd547e02U, 0xbda51425bd38c4b2U, 0xbc6508703e33db0dU, 0x3d16fbcf3b61d8c1U,
  0xbdae4499bdb2629bU, 0xbd093b503d8b181fU, 0xbd29b08abd1a7dfcU, 0xbc839b74bd266406U,
  0x3dcb8c73bd4ff0ecU, 0x3e13ed29bbed7188U, 0xbcff67c1bb9e07a3U, 0xbbae274d3e23c901U,
  0xbbc7f402bd980f87U, 0xbc8f3f13bdb7386dU, 0x3ddf61e03d7eabaeU, 0x3dd050d53dc2b796U,
  0xbe112a5e3d9376a2U, 0xbddb0df4bd9fae2dU, 0x3db9a0bb3d1faf43U, 0xbe05f48ebdd35579U,
  0x3dac60313d5337b4U, 0x3e048f7ebcd6dc27U, 0xbd73f710bdacb84bU, 0x3cc1e6363c65dee3U,
  0x3e1995bdbdc8b3bbU, 0x3dbe042f3dd767a9U, 0x3de413d8bda386afU, 0x3db5a1a53c0a1610U,
  0x3c186f6c3d7bff50U, 0xbdcf4b2abd165d7eU, 0x3b8a2c6ebcf336e2U, 0xbc802e45bdf975f5U,
  0x3c0e75133d895493U, 0x3cc0c42b3d3b09edU, 0x3ddb9aaabd05644aU, 0x3d41c4bebd0b78d4U,
  0xbd974ba53d37523eU, 0xbdf777723d0654fbU, 0xbca493d73d1af892U, 0x3dc3e76ebd181563U,
  0xbd8d8fec3cef4c6eU, 0xbd01fee7b8d99e70U, 0xbd8884653c0bf899U, 0x3d7f4ddabd9e63feU,
  0x3bb27dfdbe049b89U, 0x3de722acbd8976a8U, 0xbd2217c73c006a02U, 0x3e03876dbd0b7f54U,
  0x3cee57a13dbfd2dfU, 0xbdebf53d3cdc6478U, 0x3daa9cfe3db30e97U, 0xbe0837e4bd20fb0dU,
  0xbe0b5fab3d00897dU, 0xbdfbea4cbd831764U, 0x3cc8e30fbbf41715U, 0xbdfc1502bd8dfe76U,
  0x3db953b73cbedfafU, 0xbc52f565be125ee7U, 0xbaa167613d952872U, 0xbd1fa96abd96169fU,
  0xbd82014abd15c865U, 0xbd67b73a3c2c9b65U, 0x3dfe083ebd8b8c25U, 0xbd2b35043d4baa7fU,
  0xbdee64803df890beU, 0xbcb670eb3d96b20dU, 0x3dc6ce0bbcd7ea84U, 0xbc50a8ecbda9e113U,
  0xbd8bf883bc91250aU, 0x3d289886bd80336cU, 0xbbe726743cdc557aU, 0xbd2d245f3c6df416U,
  0x3dedf959be239d98U, 0x3d235ae5bd0be0a1U, 0x3e158d7dbcef37c5U, 0x3d1f8bf13c554088U,
  0x3d95bc8e3d9aaba1U, 0xbdb9eeb6bde58d88U, 0xbce8c321bd141eb2U, 0xbe093b76bdd95e00U,
  0x3d605a71bd52e575U, 0xbc8f4ade3d8bd53bU, 0xbe0f4c14bd5d7cb9U, 0xbd0d6f2e3de04028U,
  0x3d4d7447bdcdcaccU, 0x3d71f5d23e0fe1a7U, 0x3e1124493d1d5b4eU, 0x3d26ae76bdbc6d0cU,
  0xbd8f9e83bd5811afU, 0x3db67700bd0929dbU, 0xbd8adbe73cc72769U, 0x3dac3a99bcf9c41dU,
  0x3db470f43d67718bU, 0xbd947123bd65c90bU, 0x3d8aa9b63d6a0e71U, 0x3dc6769a3d7a9458U,
  0x3d20c700bda0fa25U, 0xbe36658dbdbc2166U, 0xbc7b3be63b4e2c09U, 0x3dbc488d3c9b9e06U,
  0xbd8e0197bd278a6eU, 0x3dd4ae11bd8b67cfU, 0x3ddead5f3d87901aU, 0x3ad2e712bd953fc8U,
  0x3e081391bd316bc9U, 0x3cabb7d03cd60ad9U, 0xbccb939bbd21cdc2U, 0x3df4cb1b3d85db32U,
  0x3d96531ebcfe178dU, 0x3d2defca3d19107bU, 0xbd5b0df83c8ab5feU, 0x3d7b276d3d7ff10dU,
  0xbe2d7ac23d9839f3U, 0xbe07085abd663d22U, 0x3dad1e20bc3fbb62U, 0xbe19d7aebd758af9U,
  0xbdcef44eba89a21cU, 0xbc6040bbbdae8c6aU, 0x3d9ff6093cec0dc7U, 0x38ee4b003cc807d5U,
  0xbe26438bbd2b4afdU, 0x3b1440cc3d80bd4cU, 0x3c675dfabe05005fU, 0xbdaba3f8bcd0febeU,
  0xbe41c72fbd15d412U, 0x3e070b73be09e24aU, 0xbe3f7d86bac67ca0U, 0xbd3cff2dbd5ef62aU,
  0xbdd9994e3d0b03a6U, 0xbdce3b59bd8e4bdfU, 0xbc89eeca3cd8c165U, 0x3dc9f014bc307484U,
  0x3c37dcd3be2ee60fU, 0xbd0c9ac73d89ecf9U, 0x3dabc8b2be389008U, 0x3b173ca83ccbac60U,
  0xbe43dc653db6bd37U, 0x3c0daca3be2ebbd3U, 0xbe229c7abd6e80c2U, 0xbe085b8fbde58d14U,
  0xbdd2101fbd626c14U, 0xba7518e83d2a9dffU, 0xbde83b7f3d90e4dcU, 0xbd4c9fd7bd9250c1U,
  0xbe2af38cbd079108U, 0x3d25cf53be09dd4bU, 0x3de42351bc3e135cU, 0xbd3cff6abe1bf8dbU,
  0xbdacecc3bd137654U, 0x3dc10098bca688adU, 0xbd9f2fc5bc2cd2ecU, 0xbe13d68c3d44158dU,
  0xbd4f512e3cc23f20U, 0xbcb03f32bd5b3324U, 0xbdd4ed2bbd4c40bdU, 0xbcfae749bb2e1bd8U,
  0xbdecc60a3d4349f4U, 0x3d8d648cbdbf6b1aU, 0xbdf7890ebde5200eU, 0xbe2078aebd2964daU,
  0x3d2c776dbd23a74fU, 0xbbd63bd03ca07d7bU, 0x3da6d8d6bc1883dcU, 0xbda75befbc1073d7U,
  0x3dca8f853d9c5c42U, 0xbd99f5dc3dbc1f76U, 0xbd8e3b22bde27d4aU, 0x3d1c97713be88b8cU,
  0xbdeda5933ca87526U, 0x3d604b7f3e09bb01U, 0x3d20e242be28d40bU, 0x3d6612cabda4dfc8U,
  0xbde7009e3d9bfbfaU, 0xba506f533d0b9ce2U, 0xbcc38899bda47dd5U, 0xbd3921be3c08c92fU,
  0xbd83195c3d93d908U, 0xbd9442c4bc0e4330U, 0xbd63b02e3c88546fU, 0xbc5c35af3db7f53bU,
  0xbd05b003be24daa8U, 0xbdca0175bdbad8ceU, 0x3d8284ed3dba2be4U, 0x3df7ce63be0ae256U,
  0xbd017e673d4f072aU, 0xbd5ab5d23cd86842U, 0x3d1cffe13d675eabU, 0xba081a743d428d35U,
  0xbd83926b3e071041U, 0x3e0e98693dc25cc0U, 0xbdfed79b3d38451eU, 0xbb966ac73e06ed2bU,
  0xbcd9f9b5bc15cd07U, 0xbda95ffebd81238aU, 0x3d08e7d73e277b04U, 0x3e0e056fbdcecb1bU,
  0xbd82d438bd89c3f7U, 0xbd31a4f13dd5e57dU, 0xbdaa983cbd5cb308U, 0x3ce8607bbdbf949fU,
  0x3de16f3c3e069a18U, 0x3d2d9f8dbd8da2d3U, 0xbe26b66a3dbd4a41U, 0xbdf227373e024228U,
  0x3b884c463d3b6af9U, 0xbc703d163e13ce38U, 0xbdd7f3933d4f2a16U, 0x3cffacaabdce9832U,
  0xbc9bc9a93ced4773U, 0x3b7ff0fdbcfb5728U, 0x3e0313e63bb8ba88U, 0xb8e908003d99201eU,
  0xbdc1de363c107c90U, 0xbd4777ab3dba0ecfU, 0xbd26fb8fbd37cd23U, 0xbd1fcaeb3de5bb35U,
  0x3e35134b3da527f8U, 0xbd0c3fc2bd940acdU, 0xbcea3b343cc02fc5U, 0x3c25a0903d49d965U,
  0xbcb37885bcb9d4dbU, 0x3da89d683dad5b84U, 0xbc74bccc3c7f4928U, 0x3dbc475e3b89286bU,
  0xbce9a7243e01fd9bU, 0x3e0ea380bd89f525U, 0xbdeb74413daf5497U, 0xbdaca7c7bd74a4e8U,
  0x3b5b13d9bd576965U, 0xb9f413003bfab74cU, 0xbdffcfca3e1c13a2U, 0x3d9be9dabd9ea96eU,
  0xbddbacc2bd89e95cU, 0x3cb6d52abd5b635fU, 0xbca29dda3e0aa7b5U, 0x3d6181613dc1770bU,
  0x3e00cdd53d50b48cU, 0xbcb1f60c3da96a7aU, 0x3d3a1ef63d8fe9c9U, 0x3df1ff6fbd30e631U,
  0xbd7ea1703a9629d5U, 0x3dc3baed3e003f91U, 0x3defa191bd522411U, 0x3d8dc806bdaceb19U,
  0x3d9828193dcaa759U, 0xbcf697753db55958U, 0x3e0a30513ca31f85U, 0x3de5bcc5bdf6292fU,
  0xbba2735e3e293e44U, 0x3d8c68d83d599c55U, 0x3d7a116cbe0458c4U, 0xbe019bcb3c18c145U,
  0x3e1747aabda5d52fU, 0x3dddcca8bc6520b9U, 0x3db353cabd5e88abU, 0xbca5b9ccbd3965fcU,
  0x3de8f9fa3d2f0ec1U, 0xbdefa6ae3e1822bdU, 0x3db07ea73dadd965U, 0xbd3409383c67a002U,
  0x3c05ed9d3e0f9b3fU, 0x3de89de33de35663U, 0xbd501b1cbe0190e5U, 0xbdb5c1193e222ef3U,
  0xbd2c3932bdc38580U, 0xbd965d92bd1c1bdeU, 0x3d73edb939aaad1eU, 0xbd9430fc3d6b9dceU,
  0x3da9e086bd0326d8U, 0xbd8f4f733e1ab428U, 0x3e223c213d9ddec7U, 0xbd5101b03dbc0a3bU,
  0x3dcdb073bc0e8af9U, 0x3da5177d3cff474cU, 0x3de88bd3bda81d94U, 0x3db41a9d3d37e4eeU,
  0x3e1040773cfd092bU, 0xbbc5b4fa3d707da1U, 0xbdc1a1613dd19bf9U, 0xbc42725bbdccbbfeU,
  0xbd11f2e7bd6589d6U, 0x3d14e4bb3d73d366U, 0x3d16494e3dcd4f04U, 0xbd2ba8433d4df18aU,
  0xbd35b69fbd57ca78U, 0x3de92beb3d92fa7aU, 0x3e0079c83dafd811U, 0x3dc5ba6f3d818128U,
  0x3d88038f3e00b774U, 0x3da91513bdc5b96fU, 0x3d91d2663e2d49efU, 0x3d16a4e13c81df21U,
  0xbe0125453db500a7U, 0x3e04de033e05cbecU, 0xbd4e4537bd703dabU, 0xbdefb7f33d8d306fU,
  0x3df3bbb8bd99fa6bU, 0xbb991150bd5dca4aU, 0xbdf3ad743e0c2f7dU, 0xbd1d01a9bce81b4aU,
  0xbd09cf63bdbed675U, 0xbdaf6a093e0d452fU, 0x3de7de2d3da9091cU, 0x3dfd3c293de26ee0U,
  0x3daa98593d51b3eaU, 0xbdf0b3cdbd1e9589U, 0x3dcfbf86bd83537cU, 0x3d0d7b743d165482U,
  0x3e05f9d6bd903a3dU, 0x3e1f71fb3d890175U, 0x3c3cf8f43d51f891U, 0xbd32a950bca5da6cU,
  0x3e328fd83d5ea753U, 0xbda9cf053b49a269U, 0xbdbd8159bce369aaU, 0x3dfff8ec3dd572f2U,
  0xbd37a17dbda1bd6cU, 0xbdb2847c3ddf346eU, 0x3bc9f4ccbdcdc708U, 0x3dce3b7fbd95c7f6U,
  0x3dafc32e3d260234U, 0x3d87a4453ceb2b82U, 0xbe054f4b3dd4a970U, 0xbc5ba4f8bda027b8U,
  0x39f31ef8be0a5005U, 0xbd81ce5d3d90c0baU, 0x3d32556a3df08e67U, 0xbd9cb13ebbb6b030U,
  0xbd81382f3cd9fe6cU, 0xbb9977793e2776bbU, 0xbd96923cbce87c03U, 0xbdd579c03d54c454U,
  0xbb4fb849bda255a5U, 0x3e1949ebbd4bbc4dU, 0x3ba4e8ad3d198ad8U, 0xbb2acecf3d157723U,
  0x3db424f2be007166U, 0x3daf765dbdd6de72U, 0x3e14c7123dc2d447U, 0xbccfa5273d4b5176U,
  0x3dc31ee23d1f5991U, 0x3dc5456abc91224fU, 0x3e10127ebd6845baU, 0x3dc3027c3bb008d6U,
  0xbdad3f673d64a499U, 0x3d97004a3dde9650U, 0x3dc543b0bd5ff3aaU, 0xbd2b02653d812273U,
  0xbc2fe5383dc60259U, 0xbd2b12bebcef399dU, 0xbd148e4a39e1934aU, 0x3e0d6fc6bd7f3dd7U,
  0x3d8960b03dc0c11cU, 0xbbf2d4f2bcc250ebU, 0xbd7a5074be0aeb14U, 0xbd51f641bbf49f66U,
  0x3e094027bd1d3be0U, 0x3d5f442fbe0f346cU, 0xbe0c7728bc819588U, 0x3c91ab753d4291feU,
  0xbdd0ee303d9ba223U, 0xbd857f643e06d831U, 0xbd74a9b6bd7147d9U, 0x3db7aaf23dbfac09U,
  0x3dc3a956bdd2dc8eU, 0xbe026b623ddf062aU, 0xbd843e26bdc8d345U, 0xbdee31f1bc9a2b59U,
  0xbbabded2bdfbaf37U, 0xbda4eac43d998e00U, 0xbd99c6d73dee6a76U, 0x3ca537b2be054028U,
  0x3cfac42c3d5b6dbfU, 0xbd8760003cea10ccU, 0xbda904debde902ccU, 0x3d761e1ebd56c168U,
  0x3d0f0e6abe02a20cU, 0x3dbf4f5a3d9c9091U, 0xbddddd843d11b49cU, 0xbccf19c5bd07e95dU,
  0x3d1fa50fbdea0756U, 0x3cd420313df53725U, 0xbd950da0bcd24d52U, 0x3dae3dbcbd99cee5U,
  0x3d0736c73c4fea50U, 0x3dd268373db82a09U, 0x3dc396463d690d98U, 0xbd578a1e3dfae70aU,
  0xbd5bfa0cbe017a40U, 0xbdcd36e6bdb7fd6bU, 0x3da01467bdb5ac89U, 0x3cc7ed333e01b877U,
  0xbc67bea0bc06ed16U, 0x3c992c68bd9b827eU, 0xbdc9cf62bd39bc92U, 0x3df9a4993c80a80bU,
  0xbe10e9923c390f3fU, 0xbd487b213c86c04dU, 0xbcfd966cbcc6b3deU, 0xbcc63aad3d9ceefeU,
  0xbd21dc96bd041342U, 0x3da8737abd4ed6e7U, 0xbcfc9ca2bc169f53U, 0xbde5f8933d4bf82aU,
  0xbcd32fc63d7a7a08U, 0x3d8760efbda2376cU, 0x3dcd67b03d13f4b9U, 0xbd80daaf3da2b796U,
  0x3da263cdbdca514eU, 0x3df7bef6bd304439U, 0xbca4bdfc3db2d1d7U, 0x3d3ac3163da1decaU,
  0xbcf90973bd789436U, 0xbddf7b45bdce71f4U, 0x3dab4603bc87bc87U, 0xbd4de0f13d4abc9bU,
  0x3dc2f89b3d4f744aU, 0xbda1ad573c7c3a3aU, 0xbd9d4f523da150a9U, 0x39e6b620bbd49fd9U,
  0xbd9eff3dbd118a69U, 0x3dc19eae3c4054d8U, 0x3db4489f3c608610U, 0xbc55f4a53d42f800U,
  0x3de1842ebd8e80a2U, 0xbce890903d194addU, 0xbe1a0dde3d4580f7U, 0xbda092473dc1bbbcU,
  0xbd483f333dc640d9U, 0xbddf9f3a3dc69bf6U, 0xbda58239bd3c1f31U, 0xbd8aa057bc684a5aU,
  0xbdb2e0413d9bcf3bU, 0x3dde99ec3d11a8ffU, 0x3da81fe63dbadbd8U, 0xbd3cb330bda31dbeU,
  0xbde781c8bdc71341U, 0x3d9ef0e93dcea0a8U, 0x3d6607d7be05e95bU, 0xbdd2f28b3df84edeU,
  0x3d6d42a1bd429cbfU, 0xbd9869aebb7d234aU, 0xbd4072873e0acde4U, 0xbd119f12bd903536U,
  0xbe0d56f93d724224U, 0xbd04fedd3db3c45cU, 0xbd8140a13db6d151U, 0x3dc6f662bdc97be3U,
  0x3dda96f2bbd1bb96U, 0x3d20de84bd92b92fU, 0x3d059b3cbd671131U, 0xbccee53dbd9585b0U,
  0x3dbe7de63dce49b0U, 0xbcd870dabd71e708U, 0x3db665e63d312137U, 0xbcbfe6003c190ddfU,
  0x3ddb638d3e060dd7U, 0xbda651333c6068d4U, 0x3c993f7f3de04630U, 0xbdff91d63ca7988fU,
  0x3d2a95003d4bf044U, 0xbd53b0bdbbbb43eaU, 0xbd8edf4a3e09e566U, 0x3e339be93c978572U,
  0xbdb382aa3d50d51bU, 0xbce3c0b8bd745accU, 0x3e518c9c3afd2b77U, 0xbdde618e3d44f769U,
  0x3d928fad3e3e28d5U, 0xbd14b73d3de62095U, 0xbdf4f8a73d78a12dU, 0xbda8396cbca6885eU,
  0x3d112c3bbe05d830U, 0x3ca5a9cebd934a95U, 0x3c24e856bd83856cU, 0xbba687c23b93e89fU,
  0xbd8bd1f9bd065290U, 0xbde60c3a3e29b65bU, 0xbd422fcabe4120b8U, 0x3c21d5b03c4779f0U,
  0x3dc984fdbd2a6bc1U, 0x3d28e80abe301646U, 0xbe0b1b473d69eca3U, 0xbcc76825bd199b50U,
  0x3e047eecbde280ffU, 0x3ce34f6e3a8d9351U, 0x3d8e1c683d9b9888U, 0x3cfaa81bbde15eb0U,
  0xbd902c63bdccdc69U, 0xbceebdd73d857297U, 0xbc721c34bdb51885U, 0xbd7f75acbcbbed27U,
  0xbde373b43df8301cU, 0x3dd281debd931253U, 0x3df7e8c5bcb3286aU, 0x3de76f4d3e00b622U,
  0x3da1ab52bc3d2a54U, 0xbd8f6e9c3d8cb17bU, 0x3d897cfa3e1ea80cU, 0x3d9fa62ebdb48e03U,
  0x3db505d8bc252604U, 0xbdb8363b3e12fc60U, 0xbd422f043d8364ccU, 0x3d0fb90c3dcd06a1U,
  0xbe0f9bca3e39c5bfU, 0x3deb4b42bdb1227bU, 0x3d5ae1d4be0f1c2cU, 0xbe05150f3d8a2a1eU,
  0x3da3261a3d6372a6U, 0xbd8f53333ca18796U, 0x3d6270923d7f7790U, 0x3d5b0823bd7c63c7U,
  0xbdcc634c3d9550a7U, 0x3c9199553d038448U, 0x3da5597b3d469caaU, 0xbd383276bdbc999bU,
  0x3d5b8113bd9508f9U, 0x3de28bde3dd1a07aU, 0x3dcac62fbca9230fU, 0xbc34b90e3e015a93U,
  0x3e25e337bdca9689U, 0xbc889b483d3f1dbfU, 0x3e21b2823d36e6e8U, 0x3ce25312bcfbe5a0U,
  0xbcdbdd68bb882858U, 0xbdb2cb6d3d332d03U, 0x3d92d8033cf3e233U, 0x3d988c29bcacd25eU,
  0xbdadb2f0bcacbd06U, 0x3cdc809f3dc2e3ffU, 0x3dae39ce3e0296d0U, 0xbd7da7aa3d990dceU,
  0x3e18eaad3ccea2f8U, 0x3d861d9d3e012e83U, 0xbcd1ebd33df6e6b3U, 0x3de0e1a53d9889e7U,
  0xbb48bbacbc8d8356U, 0x3d0cea2dbc5860f1U, 0x3b883ef9bc5815d6U, 0x3d24ec8c3bd2df0eU,
  0x3c4d4c88bda89d71U, 0xbdd6a43fbce07d8cU, 0x3db5a6433d9dbdf0U, 0x3c96a278bceee23eU,
  0x3d7690febd62d999U, 0xbd2313a73dbdeb28U, 0x3e1bb939bcff659aU, 0x3e19c9193e051b02U,
  0x3da303c03df6b2e4U, 0x3d7260de3c6e71d6U, 0x3d9fc4413d7070e1U, 0xbcc284743c9f7655U,
  0x3da54297bd66a08cU, 0x3d6eb0e4bcb3939cU, 0x3d7f608abce923adU, 0x3b09f9a33d216793U,
  0x3dce9c223dbe8131U, 0x3d93310e3e22d7e9U, 0xbd10341e3cbc0057U, 0x3df997d43c8ab3bbU,
  0xbd8cef443db06bb0U, 0xbd081704bd2025abU, 0xbd3f4530bd4b1163U, 0x3d3a23b03cf16b48U,
  0x3e0ce61abd4b62e6U, 0x3d42331e3df33de0U, 0xbdee7a62bd934e14U, 0x3e0602c33e009c0cU,
  0xbdb0d337bdce3155U, 0xbadb2e9c3d8c2fabU, 0x3e37abb5bdd3c6e2U, 0x3d9664b1bddc306fU,
  0x3b3d26473da2564bU, 0x3e3a78fdbd7af1f7U, 0xbcb5fcbf3d95d950U, 0x3d91ae4c3d868962U,
  0xbc0b79613db0a303U, 0xbcfe95aebdd0d633U, 0xbcb0b74abd507cf2U, 0x3d20713c3e0ce1e1U,
  0xbd83a63f3e05b715U, 0x3d4d42e33e142bd4U, 0x3e072fc83d1ea09cU, 0xbceb5bd53e0b3397U,
  0x3dbebd253d554abbU, 0x3d27f704bd91373aU, 0xbda7993cbd4beebaU, 0xbcb91cb03e1ad3daU,
  0x3e3e19693e1dc05aU, 0xbbed39363e14285dU, 0x3d052af83d53e068U, 0x3d0f19283b0bc971U,
  0xba32c1213d2070b0U, 0x3da8017f3df6e861U, 0x3dc6c5e7bcea2459U, 0x3cb4464dbd41e7eeU,
  0xbd6c04643e428395U, 0xbcceb5493d8fefcaU, 0xbc835e533e0f76d2U, 0xbd9ba0df3d7281ceU,
  0xbd8a1ccf3de5edf2U, 0xbdecdb3d3d777175U, 0xbc39098e3e205d0dU, 0x3cac7a62bca040b4U,
  0xbde57db33e0a1eb4U, 0xbce487973da3efc0U, 0x3de58a8dbbc18e6aU, 0xbdb3b8b2bdc5b4ccU,
  0xbd9ecd543e180d5fU, 0x3c7e20f1bd325207U, 0xbdc898c63e0bb177U, 0xbca279f6bd8a617cU,
  0x3e2ce965bd02e45fU, 0xbd0de0a43dc3b945U, 0xbd3ff390bbc6d8dcU, 0x3d7a9db53c5cf5e7U,
  0xbe1daddcbd9705eaU, 0x3e093788bd829e33U, 0x3e2ca0c23d3c4a7aU, 0xbe0b56443d92e95cU,
  0xbd7cdaaabc24c2d5U, 0xbd4cc726be15a8d2U, 0x3d354546bc8009abU, 0xbdd5d20c3d9ccb1dU,
  0x3e31a9e3be2d52cdU, 0x3dac5309bd8267e2U, 0xbd9cc96d3db01defU, 0x3dbc3be5bd9cedbbU,
  0xbdb5e059bced0c37U, 0x3dcb3bed3e281533U, 0xbcd4324f3d0da06eU, 0x3db0c828bdb6f199U,
  0xbdbad8063e2114daU, 0x3e1ea64d3dbc0064U, 0xbe0f61f73e208508U, 0x3d4149bf3d984ba3U,
  0x3dd16166bb8e22f5U, 0xbdb179c5bd8c1316U, 0x3e0bff083e03dbc8U, 0x3ca13d0dbe0a629aU,
  0xbc8c053f3ce63fedU, 0x3dcd0a5bbd8620b1U, 0x3df62a39bdb3ae0fU, 0xbc27dc6cbda09d9cU,
  0xbdc1d3563d8023f0U, 0x3d470ea33c86d76fU, 0x3d9ff0d1bc283712U, 0xbdae52973cdda4a5U,
  0x3dc09ab5be15c9b5U, 0xbc7609203d276252U, 0x3dc7fc5ebdaa4d10U, 0xbe19e0a13d92472bU,
  0xbe4a481d3d844c2eU, 0x3dc7afe33d053158U, 0x3dd71128be3a6ff5U, 0xbdb246d8bd3fffb2U,
  0xbd413507bdb84e50U, 0xbdad0e62be20d80eU, 0x3d08b0663dbc9f2bU, 0xbca65414bdacb53fU,
  0xbe1d1b36bcd8128aU, 0xbe0e12343deeec03U, 0xbda3632abe04ac9eU, 0xbe102788bc3c04bbU,
  0x3d9d02913d0684c4U, 0x3d809d55bd17c053U, 0xbe1d4769bde5d18cU, 0xbe2a3e923c967626U,
  0xbe06b411bdc01599U, 0xbdb23785bd6e1539U, 0x3d1130b03da2644eU, 0x3c9f4024bcccd9ddU,
  0x3c99411ebdb92a78U, 0xbd50ff79bdb1b037U, 0xbd38cbcabd2dce68U, 0xbdbfca063c9906dbU,
  0xbe2e012b3d44b7cfU, 0xbda3d6e9bbf39642U, 0x3e0f07393dc65b54U, 0xba6f3b64bcc365e4U,
  0xbd05e2b83b52d5fcU, 0x3d64d965bd2d5c11U, 0xbdb925f63d0be920U, 0xbdd9eb253e1900b7U,
  0xbc05548abe21d43fU, 0xbe0821ad3bd60153U, 0x3d3fbf6a3c25be30U, 0x3d76a839bdf890f4U,
  0x3dba52423e0a79e5U, 0x3c9cbf9abd0eb05bU, 0x3e089a373cbac63fU, 0x3d007f51bd9414c9U,
  0x3d5eb9d63d066337U, 0x3d1e7edc3d123023U, 0xbdd700e23c3a3ab8U, 0xbd789fc5bd4cbcbeU,
  0xbd9d0aca3d8f0d64U, 0x3da586573ce62c3fU, 0xbcfec69f3d2aa000U, 0x3e2a7bf33cadfda0U,
  0xbd99a18f3d335f87U, 0x3d310d793dab3dd4U, 0xbd37e370bd50a298U, 0x3dc570f73e074108U,
  0xbc97905c3e00de56U, 0x3c947471bde6ef7cU, 0x3d9999ec3d3137a5U, 0xbdc37047bbc20a59U,
  0x3d8a7bbfbe13d5e9U, 0xbddf6c0c3bb846a5U, 0xbc9d9f3a3c77308cU, 0xbd2069e5bcef5f44U,
  0x3d5bb6a33d949112U, 0xbd1a35703dbdefd5U, 0xbd6b47c83d86b940U, 0x3d99e98fbd9ed6b2U,
  0xbde6da6fbcec69dcU, 0x3e08fea5bdfadcd4U, 0xbd022e143dbb43e1U, 0x3dac6bc3bde08707U,
  0xbde00d34bd96b0b7U, 0xbd9669253d9b570fU, 0x3d6eb9a23cd3d96eU, 0xbde833e33dae082cU,
  0xbab562c43e09eb91U, 0x3c5446df3c57f6d1U, 0xbe182f30bc3c68b0U, 0x3d2f4f54bd47fd86U,
  0x3da96f4cbdfffb46U, 0xbd4ce0073dcbb7a3U, 0xbe0b9b4e3cd93d0eU, 0x3daf27bebe39a9dcU,
  0xbc8e092e3da91802U, 0xbda60d3d3df2f527U, 0xbe09343ab9aa8030U, 0x3c12171ebe130501U,
  0x3cc213a43db83d19U, 0xbd27f0bf3d650edfU, 0xbdc82103bce0c081U, 0xbd1b64af3d842495U,
  0x3d952bc6bd671408U, 0x3d27cdfe3df61eb8U, 0xbcb66dde3d718c35U, 0xbd98c01abe11495cU,
  0xbdf2c8103dc91b03U, 0x3d2c68f93dad4f9dU, 0xbdb79f3cbe315154U, 0xbe3582073d0ffd04U,
  0xbde98f2b3de926e6U, 0xbe1e9540be0cc80aU, 0xbdd137f93d749a98U, 0xbd5f2a7abe02d7c7U,
  0xbe13f898be1be40aU, 0x3d79fedcbd98fa7fU, 0x3cc5e928bd868328U, 0xbb0b621abe15b1a7U,
  0xbdcaa656bd3c8c32U, 0xbdd8c053bd9c9ceaU, 0xbd3930523d856d73U, 0xbddba632bd27b621U,
  0xbd18284abd93b3e4U, 0xbdb62782be2c41baU, 0x3d6650203daacac6U, 0xbd11883abdfd7113U,
  0x3d105b60bc84185aU, 0x3c7bcd9a3d895156U, 0x3dc1c6d7be21c8a1U, 0x3c6cde79bc4bfe1eU,
  0x3d8ec2d03e32266dU, 0x3dde364cbd9af9f2U, 0xbc00af36bd75bf67U, 0xbca42036bd0226b2U,
  0x3e06ac673c0d04b4U, 0xbbd2b72ebcb8f746U, 0xbc80e5003e0a10e5U, 0xbc74ef64bcc684aeU,
  0xbdc52425be02bde9U, 0xbcfa5d793d055606U, 0xbde9e623bd8f84b4U, 0xbe192f89be17cbf4U,
  0xbe0210333d0b29d8U, 0xbda00bbd3c9087e7U, 0xbbae4e4e3cc9dd34U, 0xbdbb31663ddf6217U,
  0xbd70ef30bde75964U, 0x3d2ec25bbc88e17eU, 0x3b839ae73e0c4c53U, 0xbd3828033dce301aU,
  0x3d0fb0d63de34637U, 0xbdf4d55fbbf50766U, 0x3d123448bdcd07a6U, 0x3ca952e5bd96bcb3U,
  0xbcb41a923de1ffecU, 0x3c078b5b3cb42a54U, 0x3d9336d7bceb2982U, 0xbc8afe56bc804e8eU,
  0xbd0b0835bde924e6U, 0xbdbfa659bbad48f3U, 0xbdd5567f3e17a251U, 0xbc46cbf93d3e3337U,
  0xbda810ed3cc89086U, 0xbcdfa8143e1817a0U, 0xbce3e0bc3d9ce1faU, 0xbd886b3c3de4105fU,
  0x3d9619af3d8a772fU, 0x3db60f723dcc73a6U, 0x3c29c52f3b8ef697U, 0xbda0e96e3d83edadU,
  0x3e0360373dc60ee5U, 0x3d4930323e08bdb7U, 0xbcfbba5bbc2d4522U, 0x3d83f44ebd4a6fc1U,
  0x3d951a90bd10dc32U, 0xbc6bd2603c6e64a2U, 0xbcc0e347bd2992a7U, 0xbc9a3bf73c8b6a57U,
  0x3dcb9bbbbd6bdb5eU, 0x3e185b1a3d33dd44U, 0xbcc938e33e10a9fcU, 0x3d2801c23e090041U,
  0xbcc31754bc919acfU, 0x3d4ae034bd8cf24eU, 0xbd8dd6b13d157856U, 0xbde6777dbd8217f3U,
  0xbdbb742ebdd63884U, 0x3da99fd33db7f288U, 0x3d63d6333d2ba7d7U, 0xbdf76749bd834333U,
  0x3d896067bc98f0e6U, 0xbd6912003d8a3133U, 0xbd13753abd1d2a99U, 0x3c9d7166bdd69adfU,
  0xbdb56f793d57a001U, 0x3dd3f0f83c248478U, 0xbdd11cb8bd3d52e8U, 0x3de9f583bd379154U,
  0xbd8233f2bd87e3c6U, 0xbdb46620bb0b87f6U, 0x3dfc3180bc8b5957U, 0x3de0959fbd44c3f0U,
  0xbd2fa740bd9188d3U, 0x3daca55abdd6ceeeU, 0xbdb56e0abdea21ffU, 0xbdefc02e3e02cfe7U,
  0xbd7f003c3d0f54c8U, 0xbc2bec22bc5da650U, 0xbd4b09ddbc1f78c8U, 0xbc1d9e83bd7f5ee1U,
  0x3dc980f93bf5197cU, 0x3d9a88123be24a82U, 0x3b80049abb487c1bU, 0x3dc43015ba8d59f7U,
  0xbd2fad0a3d949b79U, 0xbde31cc33b7de42eU, 0x3de61dc7bdcd4d5cU, 0xbbbf9591bdda3539U,
  0x3d32b217bd23fc3bU, 0xbd8b996d3d873412U, 0x3dbd732abdd199baU, 0x3dd486103d9f677cU,
  0xbd35b7af3de0b1c5U, 0x3ca9aace3e02ce30U, 0x3d9d6cccbdf7654eU, 0x3dd6810bbdf994bbU,
  0x3ce50edbba71a632U, 0xbcb5f4c23d943072U, 0xbe0345f13d805d2dU, 0x3df3719ebdfae1e8U,
  0x3b4c5294bdf3cb69U, 0xbdea62a83e03208fU, 0x3dd76682bc77d15aU, 0xbcd3b1f63d53885fU,
  0xbdf913b03e03a110U, 0xbd8bb2b1bdc5dd86U, 0x3bf37d40bd3b86f8U, 0x3dfb9006bbcef55cU,
  0xbdd02e173dbfc530U, 0xbd9b4994bb3f5922U, 0x3dc0789abab4f67fU, 0xbd697fc33e11a31cU,
  0x3bc79d48bd70bb5aU, 0x3dc1c55e3ce54b42U, 0x3c9f3197bbdc6c3cU, 0x3e0c9d85be078edbU,
  0xbdeada263deccc5dU, 0xbbc43fd93d91f28dU, 0xbd72b032bc7c5da1U, 0xbdcf3d75bd3825edU,
  0x3ca980d63b40be0eU, 0x3d98c509bdbade36U, 0x3d850b57bae8ae1eU, 0xbdda8900bd3f96bfU,
  0xbbbdf16cbd65247fU, 0x3dfa15053db32907U, 0x3e1025753d9ce037U, 0x3cb5bde3bdf2c115U,
  0x3d94c398bca9c8fcU, 0x3ba472c23b375f4dU, 0xbd970db43c1f78a4U, 0x3decd9c93e045761U,
  0x3dc04cc2bdd793ccU, 0x3d81dcd73d401981U, 0xbe050813bcd67746U, 0xbce911d93db06174U,
  0x3ddea139bd2fa95bU, 0x3d2eb6803d44292aU, 0xbd968e9dbc06bb47U, 0x3dd87918bd6b876dU,
  0x3db7ee2bbc02c695U, 0x3e123eaf3e00c505U, 0x3dc6aaf03db8d532U, 0xbcdf36fa3d9755baU,
  0xbbdf7731bd518fe1U, 0x3d8826f1be09119aU, 0x3d52595a3dfe3cfcU, 0x3d0cef8b3d7e5b7bU,
  0x3c023fb9bd05f560U, 0x3dcfc461bda72850U, 0x3dd7659fbcdf455cU, 0xbd8825843d5c031dU,
  0xbe02ae613d6aebccU, 0x3d5335a13db2e581U, 0xbd036ae0bdeb78d6U, 0xbc06175cbdb3f57aU,
  0x3e0dd7f33d9a68f6U, 0xbdddfe0a3de9ef9fU, 0xbdd90e00bd7892ffU, 0x3cd3f78abc94a321U,
  0xbcc106153c300619U, 0xbd0dfb6ebe01994cU, 0x3d5d6d6b3e10cda0U, 0x3d22672fbd5a6fc3U,
  0x3dcc6eb0bdf709ddU, 0x3d9fb40b3e04e7cbU, 0xbd1e1c61bbd2e585U, 0xbb8447d1bd48b39cU,
  0xbda977633e0e578bU, 0xbd99a2d5bd01c95dU, 0xbe069fba3b9e1f8fU, 0x3d716a5cbda9db18U,
  0x3e17463d3d5f9de2U, 0xbdc825e53d6ddee9U, 0xbdf84c853d4f7d40U, 0x3caac8b43ca0a5c5U,
  0x3daef8ec3d88124eU, 0x3de15d0f3de51d1dU, 0x3de1fca53d386ba4U, 0x3db55adebdaf6c98U,
  0x3c0b8e963e0cc721U, 0xbd415120bd851503U, 0x3d946c67bdd26527U, 0xbdaceca53e0ce6b4U,
  0xbd358eb6bbd53246U, 0x3da52b9ebdebfbcfU, 0x3d8a4298bc1c8c21U, 0xbd17b4783dbb405eU,
  0xbb2c9ce7bdd091b2U, 0xbddeaea4bdd270daU, 0x3d7cda8cbd4b3043U, 0x3de90d973dfc30f8U,
  0xbdcff21b3d5d4207U, 0x3da64c95bd8d1df1U, 0xbe17a0933e08022dU, 0xbdf0d6143d9c7f29U,
  0x3e095a243d8c1c73U, 0xbdb071b93ccdedf9U, 0xbd8a76e83dfe2093U, 0x3dce758fbd497378U,
  0x3de258b5bbc5e8a9U, 0x3bd23facbdeaa7f6U, 0xbc760923be1db7c9U, 0xbc3e5e55bb00af54U,
  0x3cc1ac46bd493672U, 0x3b80d7af3dfa344fU, 0xbdf353ff3d9bcdfaU, 0xbd9b95c5bd5bbb88U,
  0xbd9c428fbd74df3fU, 0xbd7766b83d8d21d6U, 0x3e205edabcdbf046U, 0x3cd8a525bdf80160U,
  0xbd99a145bd5eb08bU, 0x3d7e11073d7b6a60U, 0x3e26d2423d10a646U, 0x3c998d18bb43cdecU,
  0x3d2c8a5cbdb91712U, 0x3d76ceda3d512dc2U, 0x3e09c5513e032b30U, 0xbd50362d3c4ed385U,
  0xbdc5a9b23e08c724U, 0x3d6b73b43d9db989U, 0xbc964f4d3dc03367U, 0x3d13fadd3c90ccfaU,
  0x3dee65d33e2343d2U, 0xbd81cb07bdc3808dU, 0xbddc8105bd82633aU, 0x3db284ec3db8b136U,
  0x3dc8cc973db39803U, 0xbdbb2701bdb4614bU, 0x3e07db633da65bb5U, 0xbbf2dde13cde8703U,
  0x3ddd170e3e088c3cU, 0xbd2f3ed1bda22811U, 0x3800cc69bd46b7f7U, 0x3d83cfd03e0ac14fU,
  0x3d6134d73dfd0604U, 0x3d5ce5523dc0b4c7U, 0xbce7f094bdc3238dU, 0xbd69f589bdc3c4caU,
  0x3d854d4dbd704339U, 0xbd94b890bdbd8ccdU, 0x3da3b3233e0794adU, 0x3e1a41403dca87e3U,
  0x3da1b9a3bde3efbdU, 0x3ce0e1ca3de9d751U, 0xbc1250f4bdbb473aU, 0x3c7ee71dbdc6003aU,
  0x3e1e3f883bab5069U, 0xbd75bc933b462415U, 0x3c822fbabdc7e9acU, 0xbd7d24ec3e022e37U,
  0xbd9a04dfbd541841U, 0x3dd0cbbfbd5d4095U, 0x3e19fd1d3dba85acU, 0x3e133fe83d3fe060U,
  0xbdd91e0dbc97568fU, 0x3cd5f2a3bccadf84U, 0x3de8c697bd895202U, 0xbd1d8b7b3d5c44eaU,
  0xbce0762a3dcc0fdfU, 0x3e0a1e4dbcbdfa02U, 0x3d1fa05f3dcf5942U, 0x3cb3c6e9bb9b326fU,
  0x3d5e95873db59a20U, 0xbd9ef7f43d081aa3U, 0x3db804883e355460U, 0x3d120956bdb2ef7fU,
  0x3d985ac0bd726a7dU, 0x3d92f4293da8e99fU, 0x3d323dcabd499bcdU, 0x3dc3724dbcec9b3aU,
  0x3cbccde63d3d855eU, 0x3cbfff2f3d965c45U, 0xbd3d85a03becd326U, 0x3dd1011d3e00a0e6U,
  0x3e052d8abdacc32bU, 0xbd7474b3bc72b1daU, 0xbde468383d7bcb06U, 0x3e2448ba3d37bed5U,
  0x3da681dcbcf9fbe3U, 0x3da96d903c2c8867U, 0xbd88d94bbd9f914dU, 0x3de0d1c7bd2be079U,
  0x3e02ade33d098541U, 0x3d52b3403da226abU, 0x3db30524bd838ca9U, 0xbdce0fbf3d5053acU,
  0xbd60bdc43b97631bU, 0x3b36105d3dbdb156U, 0x3dbf53c83dd95cc2U, 0x3d99b0b33bafe218U,
  0x3d800fd7bd13f699U, 0xbdbecc93bd9a30f5U, 0x3e1f2987bdae1a45U, 0xbc9355c83da900b6U,
  0xbda80f753dc53901U, 0xbd5382cd3d346de4U, 0x3dfde2b0bb860059U, 0x3cd943123dec4adbU,
  0xbd14b5943d833477U, 0x3de26752bd37f99dU, 0xbdd956853e1ee587U, 0x3e0e6405bde0bcd0U,
  0x3ddc6134bddd0985U, 0x3d8d61ff3dbe677cU, 0x3dd283463c9f1effU, 0xbd8b7be03e0dc5b2U,
  0xbcf85da4bd6c7525U, 0xbda56c213e06e8d7U, 0x3d8eb6ce3e1f2260U, 0xbac7f12e3db06ed4U,
  0x3d9840783d1ab09fU, 0x3df530213c0b3671U, 0xbda4f6023d72bbc3U, 0xbd957871bd290677U,
  0xbc68633bbd739a35U, 0xbd81dfdd3e1267c7U, 0x3e0da35a3e04f859U, 0x3dd0a4d7bcbddbe6U,
  0xbcc1b1c93dfa5dc0U, 0x3cdb155f3ddb961bU, 0x3d02d1f53dc0aa32U, 0x3da2a0a0bd9c700fU,
  0x3cd58abbbc8a7656U, 0x3d98c4ca3dc9d6a3U, 0x3d810819bdbbfe38U, 0xbd958bbbbd2622c1U,
  0x3d955d6e3dee0144U, 0x3dcbc7c43daa5631U, 0xbca832fabd553190U, 0xbccd6cfabe006d8bU,
  0xbda44ab5be0f06d4U, 0x3d92eddd3c54a1bfU, 0xbe0a6ac83e04d0adU, 0xbdf96f173c94a007U,
  0x3d9bf97a3d89ce7fU, 0x3d9392b63c31794aU, 0x3d9560dbbe07f077U, 0xbdee84ae3d59b91eU,
  0xbc976ee2bd79c4f0U, 0x3df716a43d8f9391U, 0xbd86f05fbb9180bbU, 0xbd48f1743dfc607dU,
  0x3da029fcbcb7ecb7U, 0xbd913569bdc73705U, 0x3d935b9f3d4e037aU, 0x3cdba2b5be097259U,
  0x3d82d4813d4ec5dbU, 0x3cd30679bd0e5e44U, 0x3db4b362bdc0a3b3U, 0xbd864c063a1d8c48U,
  0xbd60b73bbc9c7db6U, 0x3d5b5de13c2daf7cU, 0x3bee7d9abd7d15beU, 0xbdd12d1a3e04c944U,
  0x3d0bf2053dc51a0dU, 0xbc8afdd7bd556d76U, 0x3d9686a23db34352U, 0xbdd7a7f5bd7e6100U,
  0x3e0cd3aebde0e146U, 0x3de56a6b3d9f13bdU, 0x3d853e143daa764dU, 0x3d3098dc3d65908bU,
  0xbc3b9d483d41fb04U, 0x3da8262b3df373c4U, 0x3db3820fbdb96d49U, 0xbd0c2adb3d5f8975U,
  0xbd9d28bb3d0450e4U, 0x3d95b224bdf59006U, 0xbd8192943d297487U, 0xbb5156d5bd854a26U,
  0x3d1a951bba3d2dc8U, 0xbdbc6e6d3dcd7cc2U, 0x3e049b4b3dc232e0U, 0x3e1b2d05bdd0c0b3U,
  0xbd408d5ebd4b3effU, 0x3d058c30bd77fadaU, 0x3e219d73bddd14ffU, 0xbde36ae03c47dac9U,
  0x3e1200083d907f0eU, 0xbd229090be1232caU, 0x3be71b3ebd37abf5U, 0x3c8934883e36a7e1U,
  0x3de3218dbd126dc5U, 0xbe068ee33dfc928dU, 0xbde6fd2d3bfac677U, 0xbd89211dbd1242dcU,
  0xbdaddcc8bcfa72b6U, 0x3ccd375fbc655c50U, 0xba23fa28bdff7e17U, 0xbdd5968e3d178ae3U,
  0xbd5443603af673ccU, 0xbd84d81f3da99a2aU, 0xbdd0b04fbd94b0d4U, 0x3dc41d86bd3af28fU,
  0x3daf2cc43cf3be1eU, 0x3d01fa503d356f82U, 0x3daeb7583d6ac1aaU, 0xbd2f2a69be1057d0U,
  0xbb7ae1033c881374U, 0x3d874bf83d7637d3U, 0xbd86abe3bcae26b2U, 0xbd962d2d3c411999U,
  0xbc106aa63dd6eb15U, 0x3de3e1353d5e9acfU, 0xbe1eefd33da399a1U, 0xbdff7bbcbda6056fU,
  0xbdb0a06b3d4a2f18U, 0x3d90b857bda5994bU, 0x3da8ebf9bdd82918U, 0x3d61228ebe1fcf13U,
  0x3dc8e8f7bd9aa53aU, 0xbd88d8bc3d922254U, 0xbe2ec6113d803ea4U, 0x3dee7d40bd897f6eU,
  0xbd38a1a3bc3a5b35U, 0xbd3de10b3db7d435U, 0xbdbdb0503df1de55U, 0xbd279355bdbc7500U,
  0xbe167f4c3d2aa5d0U, 0xbdcf6a9bbde0afe3U, 0x3dac527ebd8dd533U, 0xbd73c4c4bd77cfb9U,
  0xbdbbd4d3bc3d5622U, 0x3dcf65283daa2f74U, 0xbda7672e3dea6e81U, 0xbab875c23d1af144U,
  0xbdf6768cbda2e83aU, 0x3bfc61e0bc712965U, 0xbcea6ebfbb081c7bU, 0xbda0cdbfbde21d40U,
  0xbe2db3cd3db65d74U, 0x3d8e4fb53d512deaU, 0xbe0865f5be0cc543U, 0xbd3212ddbdd63531U,
  0xbe09cf2e3ce9ce86U, 0xbd9185bebdb67c89U, 0xbc82b8983dadbb42U, 0x3c61ba8cbe25d99cU,
  0xbe1e79043d3b6b36U, 0xbda9e62d3c8b1c60U, 0x3d53298ebe10312bU, 0xbdcf3deebd6db064U,
  0x3cd9ae5f3e161b8cU, 0x3d522c763d30e2f0U, 0xbcfec20dbe1d9024U, 0xbe0f564b3e210387U,
  0x3e1db713be2333b4U, 0xbd73a4abbcb739a3U, 0x3d8f7920bd54dbb6U, 0x3d3f3e86bc2c7903U,
  0xbdbc9ff4bd852c54U, 0xbda6975dbd768bf4U, 0x3b17ed11bd8cdcb6U, 0x3dbc3c62bd918e5cU,
  0xbd120660bcc662bdU, 0x3dcb227dbcda9e01U, 0xbd078e5abe1480faU, 0xbda0ea843d64f432U,
  0x3da923143cb24acdU, 0xbc9eaef93d1ece22U, 0x3dd73c7c3e119f82U, 0x3de7973bbd712bddU,
  0xbdc98a6e3d1b2e2eU, 0xbcb123a9bd6e1c24U, 0x3dce4cbbbd7dd44aU, 0xbc7070f4bdf0272eU,
  0xbe01b1cabca2ebe3U, 0xbd2596debd879034U, 0xbced54c43d831a42U, 0x3d11bf9e3e03de06U,
  0x3e1da8993dd08703U, 0x3d9425b6bd735e86U, 0x3d8caad73e173d22U, 0x3d3cf418bd6a99d2U,
  0xbdc835c83dc52aafU, 0x3e0e99173d431856U, 0x3d57405e3df5ee34U, 0xbc9058c6bd96982fU,
  0x3e18b40b3d8e1c43U, 0x3e1ad736bc7b1c76U, 0xbdec9fb23ca1749cU, 0xbd5520413d9a90e4U,
  0xbc4ada5ebd255b31U, 0x3dfa70ee3d6e54d4U, 0xbcd793d73e1180c3U, 0x3e0d0c5abdcae860U,
  0x3e00a822bdce8b98U, 0xbccef0a33df48ff4U, 0x3df60c5e3d2032f4U, 0xbd4dadc1bd570c64U,
  0x3e0a6fdd3e13fa76U, 0x3d357a74bda35b86U, 0x3df17d91bd850a2aU, 0x3dd503303e08fb87U,
  0xbd068755bd467f45U, 0x3d9df3b7bc77c242U, 0xbcd33a4d3bf74826U, 0x3e2ef46f3dd4065aU,
  0x3e0245263c11dd65U, 0x3e0a8109bbf941aeU, 0x3da29b1bbda9750cU, 0x3d815082bad1b332U,
  0x3e1da4823db83181U, 0x3d19e008bce5ab93U, 0xbafa3424bda0d977U, 0x3d9ae59f3e28818bU,
  0xbd81949c3d92f977U, 0xbc438afd3e20cb89U, 0xbdc4b1863de1a2d9U, 0x3d8352d63d89825eU,
  0x3ce2e5f8bda852a2U, 0xbd28320ebc8c8763U, 0x3e12765a3d30cd33U, 0xbd82c8e6bda1cc27U,
  0xbc913c0e3d78029bU, 0x3e296927be09c12bU, 0xbe0308de3e0c4025U, 0x3e0502933e0cfd2bU,
  0xbdb83822bcf04112U, 0xbd93c1be3c965686U, 0x3d88399dbdb76c04U, 0x3cd0f6073b0941f2U,
  0xbe0160ea3db91168U, 0x3e149b09bd42459dU, 0x3d6dcb3ebe0d06a4U, 0xbcbdf5343d1bc3caU,
  0x3cae66013cd072b3U, 0xbdbdbd1cbddf7770U, 0xbdf884b23d2384d8U, 0x3d466e963e15d04fU,
  0x3d90bf3e3d0b9f01U, 0xbc0885a4bda73adeU, 0xbdcf83dc3be0db7cU, 0x3cfc3dab3dd07243U,
  0xbdc7bc093da3d291U, 0xbccc917b3ca921f9U, 0xbd73ff463d7ce446U, 0x3df38cb4bd61124dU,
  0x3e05054dbcc4e368U, 0x3ccd65a53d93133aU, 0xbc38444abdad7325U, 0x3dc56f97bba47e33U,
  0x3bdf52ea3acfc871U, 0x3ccd14a7bd317fddU, 0x3e2337fc3d32d420U, 0xbc0387a03d17c678U,
  0x3d8b3bf33c62521aU, 0x3e1ad258bd66d313U, 0x3ce385cf3d7a2c0eU, 0x3d20b2ff3d725acdU,
  0x3e268b85bd53b116U, 0xbdec2886bdc6c4eeU, 0xbc3cb01ebd8d4365U, 0x3ccef92b3d649743U,
  0x3d13bc113e128bc5U, 0x3d6bc9f43dc9bcc7U, 0x3d01cf1d3de2c7fcU, 0xbdd8eb2c3e094973U,
  0x3bc95a30bd52ab93U, 0x3e005efe3d9f731bU, 0x3cc099df3d2d1e81U, 0x3d7cdc463cd7756eU,
  0x3c86cf693dce6a49U, 0x3daa18bfbd96ab8dU, 0xbe06b1e53db4cfb4U, 0x3e359c31bc6a8a22U,
  0xbb67d5b33dab001cU, 0x3d19bbb93de8ba90U, 0x3e04c99ebd91d82eU, 0xbdc472563dece234U,
  0x3aa6a0fbbc96b841U, 0x3d7e8a26bcac2c93U, 0xbd87db603c8a030dU, 0x3da0cd6e3c88b9eaU,
  0x3dee92cb3c0426f0U, 0x3dbf6611bc37ac41U, 0x3e05afbe3d4147cdU, 0x3e121f76bd205ee1U,
  0x3e11a5193db46831U, 0x39aab0f63d1069ebU, 0x3df37e6cbda02984U, 0x3c85fb1f3d9b1170U,
  0xbdf70686bcdd99faU, 0x3a0ae42e3de06087U, 0xbdb99b3f3d1e022fU, 0x3dd3d6543e2c58c7U,
  0xbd61ddb9bdb2fad7U, 0xbd056fe4bdd690aaU, 0x3c0a6c403e287921U, 0xbd785ecc3dcd9aa4U,
  0xbe0c51763e02e48aU, 0xbd6e14a83ded8ef2U, 0x3c2898d8bdff6f37U, 0xbdb48c2dbdb00421U,
  0x3dec267f3d57c636U, 0x3b82b532be1458e1U, 0xbd86e0a93e264a49U, 0x3dcb5064bd29bf1eU,
  0xbd71111d3dc50206U, 0x3daca40c3dde5bb7U, 0xbdb067e5bb8632ddU, 0x3c7c0b7cbdb150d7U,
  0xbdca30b0bc15c7d4U, 0x3dcf851cbd9e15abU, 0x3db349f9bd0c0d79U, 0x3db441e1bb2d9e71U,
  0xbc40ee513dcea366U, 0x3e2c53ebbd1a052dU, 0x3cbfddd73ccecc70U, 0x3e1f67a63e353152U,
  0x3d9efa893dc1ff9aU, 0x3cc34426bccf1893U, 0x3de2ea2b3d4a52e6U, 0x3d820729bcc2b39cU,
  0x3cf3bc383d64e15eU, 0x3c6843edbd8f9b28U, 0x3e253ac0bd6046c8U, 0xbe11a11abdcaca26U,
  0x3db867033de739d7U, 0x3cf29014bc11e431U, 0xbd2a86833bd7bc4dU, 0xbd997ddfbd3ac491U,
  0xbddff113bda9f962U, 0x3c2de7f4bc8d31c1U, 0x3e0c1189bd22f982U, 0xbd2e8950bdcd4a21U,
  0x3c9fceba3d9bd1e2U, 0xbd8161493de0413dU, 0x3d5656b7be16c5c3U, 0xbe00c3913c152c91U,
  0x3d6ac0123d7bf770U, 0xbe06f84abd870396U, 0xbd2a40ec3dac2ee2U, 0xbded7e77bda75128U,
  0x3e01f07d3ba46c1aU, 0xbd50c5d2bd01c447U, 0x3ba11f93be07907eU, 0xbd73cd63bd51ee8aU,
  0xbdbe18403c8e5cb8U, 0xbdd700e4bc739e99U, 0xbdc5bd273cdf076dU, 0x3bc62ea1be07d5c4U,
  0x3ceae2b2bde1afd5U, 0xbded41273d9fa52fU, 0xbdadf99c3dcd4bcfU, 0xbdc000f9bd9c5d6fU,
  0xbc8e88f7bcc43dbaU, 0xbdabcf783defd1b0U, 0x3cf79dc3be0c0bf0U, 0xbe095a15bc2309beU,
  0x3d5333bf3d9c3143U, 0x3d90a626bd332dd8U, 0xbd4622aa3dabd341U, 0x3deb482dbbf1031eU,
  0xbdae48debb2231b4U, 0x3d6363653d29a7a7U, 0x3da39befbd3c3189U, 0xbcec82a9bd02e2afU,
  0xbd872b623dda4dbfU, 0xbdf414523c6890c5U, 0x3d8d30d33dbfc256U, 0x3a14885abd1dee17U,
  0xbdd362f53da6d7b0U, 0xbe0322aebddd1e2bU, 0xbdc0279a3db96925U, 0xbd69b61f3d0c04c8U,
  0xbd03d880bd504f3cU, 0x3df2d2483d388553U, 0xbdf4df0c3d4d201aU, 0x3d429188bc94ecc5U,
  0x3b286c023da42f5dU, 0xbc1a9718bc86cdc6U, 0x3dd5213e3e0a4086U, 0x3d44237c3e0b9eb1U,
  0x3da66476be0fdadfU, 0x3d89c0fdbdaabb38U, 0x3c9a5d56bd7a55a5U, 0xbdb49f20bdfff1d3U,
  0xbc655c803d878714U, 0x3e16ec623d57ea69U, 0xbce0930abde4f883U, 0xbc8a1619bdd0ee6dU,
  0x3d403a0bbdc6a4c1U, 0xbd5487e7bdf76307U, 0x3d643b46bda38171U, 0xbb0e0a393da717e9U,
  0x3c8e01383ddbc2a1U, 0x3df2bfba3e003072U, 0x3dc5f6b3bc5dc154U, 0xbd39eb57bdc31ae1U,
  0x3c00b6d4bdda5324U, 0xbd50e14a3d5d23faU, 0x3ddd4d093d37a776U, 0x3d18c0c5bd8ce15eU,
  0xbc07f2c7bd2c94d1U, 0xbc6e829c3c881b7cU, 0xbe0be8403b5d8ed1U, 0x3d9e8b8ebca63e3dU,
  0xbc245f1dbb5eead2U, 0xbd801ea4bd58bec1U, 0xbcb2d6593dc78766U, 0xbc37e2603d79199eU,
  0xbcf49ab5bd077b84U, 0x3e001ba63d0bb240U, 0x3e188b7dbd47d07bU, 0x3df41a433e0ae16aU,
  0x3c3f46aa3e0a41c3U, 0x3d67ab49bd03ae3fU, 0xbc1e5aeebcb54fddU, 0x3df6f2a0bdd8860cU,
  0xbdba9d9f3de8a8d1U, 0x3d23f07dbd2e0773U, 0xbdf110a03cbe17f0U, 0xbdcf60933d50462aU,
  0xbc8f77c8bdaeb475U, 0xbcbb2b353c15ff8cU, 0xbdc227263d33e423U, 0xbcaa468abd9f144dU,
  0xbd34795e3e0096c1U, 0x3dd42e42bd482435U, 0xbc8140633d102b96U, 0xbdd825edbc3d2a59U,
  0xbdcc30723cee9a2fU, 0x3db9c7e3bda73942U, 0x3ded30b23d4e5426U, 0xbd3602f6bdfaf460U,
  0x3c6e23403da466d1U, 0xbd02f565b9e6cb20U, 0xbcad17bdbd81fe36U, 0x3da3dbc43dffa56cU,
  0xbdaf76193dd68b96U, 0x3df9119b3d7926d9U, 0x3ce44549bda3c833U, 0x3d7205ddbdde91dbU,
  0xbce60295ba1777d8U, 0x3d5c12243dd1f7afU, 0xbdd3433d3e1541afU, 0xbdd60ed3bd3bc8aeU,
  0xbe1c60dbbde72fc5U, 0xbd92d376bb4b8cd9U, 0xbd142dcc3ae7b446U, 0x3dba10e53d849d23U,
  0xbd08709d3c87a380U, 0x3e0bc0cbbc61aa6fU, 0x3d22e662bd968d83U, 0x3dcbe8683cd6a78eU,
  0x3dc05d26bd103d04U, 0xbb23e69e3cfacb72U, 0xbdaa74cfbcbd184eU, 0x3db66ef0bda74567U,
  0x3ddb26563c11fe5fU, 0xbcf523363c509440U, 0x3d218ac0bdfe8a64U, 0xbde879ee3cba621bU,
  0x3de15e81bda857a7U, 0xbdcf8cb63b67dda3U, 0x3db20a92bc1c2aedU, 0x3e06ab8e3de1b2a9U,
  0x3e0f7179bd43c7b8U, 0x3d25a89b3d4af503U, 0x3d85a0103d68f7f5U, 0xbcb54d0c3db37170U,
  0xbd437787bdb9b227U, 0xbcd309913d71ddbeU, 0xbdc24903bd52b9ecU, 0x3db8fd2cbb4ce576U,
  0x3bcc27083dc06547U, 0x3d76d22f3c797385U, 0xbd8181ad3daf4ddbU, 0xbc7b89bfbdc29450U,
  0x3dffd830bdfe7e0fU, 0x3cf0b644bd7cab8bU, 0xbc8da0babdc81968U, 0xbdd0753a3dc0689bU,
  0xbda8fcf63df46911U, 0xbce57e86bdcfeb00U, 0x3d7e9d2c3d146d44U, 0xbdbb6a46bbbebc3eU,
  0x3dd24f083d27e5acU, 0x3d2917f0bdd3027aU, 0xbd1d3434bcbaa5a4U, 0x3d9f4e3dbd9f5635U,
  0x3d4fab84bdd0e4fcU, 0xbd99c8debd5c6e53U, 0xbde75519bdc0e486U, 0xbb9045333da0d2ffU,
  0xbd9ae7453b993080U, 0xbb3edfed3d284d9fU, 0x3c45f2e93da06c86U, 0xbd9d58223dfbfda4U,
  0xbd45fc67bb4cfbe0U, 0xbd7bc24fbd61caf7U, 0xbaba23f43b4ed586U, 0x3b48a1efbd82e9f1U,
  0x3d9d1e95bc1ec49bU, 0x3da8bc33bdaa2ec6U, 0x3cd07d233bb040daU, 0x3d5679903da1508bU,
  0xbc2cd28ebd613bcbU, 0xbd93e81fbad464d0U, 0xbda426b0bbb3decbU, 0x3daea648bcbe7f44U,
  0x3b6f57e63dab8241U, 0x3cdaf64e3cc2eca8U, 0x3da779aa3d5568cdU, 0xbe2ac3eebd115f8aU,
  0x3e0de156bd6543d4U, 0xbe0866f7bd8c67b7U, 0xbd6cb2483db8071fU, 0xbbf6ae2a3c862aa5U,
  0xbdcac4e93d83c018U, 0xbdbbd4bc3db3cabbU, 0x3ced63163c870ff5U, 0x3c89e0b8be2314c5U,
  0xbb4a0b6cbd60b30eU, 0xbcd4e1fe3db2980fU, 0xbbfc66ea3cfcb493U, 0x3d28a49cbb137660U,
  0xbc5ce8a4bdf0ec4dU, 0x3d4901f4be308912U, 0xbdbd70773d65c749U, 0x3c991cafbdce023dU,
  0x3df34fa9bda41266U, 0xbd9e3ec63d3ba97dU, 0x3e13eeb9be018084U, 0x3cf7a967bd701488U,
  0xbd95df2d3e077285U, 0xbc2a9efcbdc8669cU, 0x3cfa8ab43d9c4b6fU, 0x3dbbe0283d10af80U,
  0xbdd5fcab3d150808U, 0xbdf6a2543d48ae3aU, 0xbd02088dbcd8c5c7U, 0x3dcc943d3df49476U,
  0xbdd549e2bcea4b02U, 0xbdf10020bca02aa8U, 0x3e0b1e15bd04d0d3U, 0x3de1ecd7be229a38U,
  0x3b854018bd82e990U, 0x3d2c6d763dad0e70U, 0x3c660d7ebd37c30bU, 0xbbdc51ec3ce95f45U,
  0xbdd120c739f19c98U, 0xbc84529fbdce1affU, 0xbdeca372bcfb691eU, 0xbde2e2513d60e759U,
  0xbda2511cbde8a8ecU, 0x3b0e015abc05aa44U, 0xbbe02b8abe044255U, 0xbd8df673be05fefdU,
  0xbd5106143ce3c6cdU, 0xbdd2f0643c6d7433U, 0xbd884ee4be2587cfU, 0xbc18a076bdcc95b5U,
  0xbc6d091abdc80cc6U, 0x3d9d43f53ca05140U, 0x3d8eee743e097488U, 0xbdd57fa0bd937b41U,
  0x3e06e8ae3db1a36aU, 0x3d6b5bd33e0c78a6U, 0x3e176eabbc8a210dU, 0x3daf1ba13d893ebfU,
  0xbd8e0ebe3dd09964U, 0x3e0ddc67bdfccb49U, 0x3d6f633ebc660091U, 0xbcd0419fbd0b0840U,
  0x3dc7375f3cc85c50U, 0xbddb32e5bddedb6cU, 0xbe022c17bd8f47c2U, 0x3cdd0b18bc6f6562U,
  0xbd5ad0113d42c915U, 0xbdad8f1c3cef7890U, 0xba904fb8bddb5e93U, 0xbddb31403d272735U,
  0xbd831b06bdd24333U, 0xbd8e719bbd10cd8eU, 0xbdd8597bbb94b95aU, 0xbcb988363e144cf0U,
  0x3e00ffce3df2c251U, 0x3cdfee133d7c9ebaU, 0x3ca9c8a43d584ee2U, 0x3d5aa5c8bc4e1163U,
  0x3dd50747bb93d754U, 0xbe063c01ba5fb07cU, 0xbdc921e13bbacb8fU, 0x3da0aa573c55795aU,
  0xbe17ecc63e011bf6U, 0xbd501274bda28215U, 0x3ddbe2e0bbdb7dfaU, 0x3d12ccd13c757697U,
  0xbd566713bdd5b542U, 0x3d7de8703d8b9482U, 0xbe17cfe23cf2df5aU, 0x3d792bdbbd4908b0U,
  0xbd9216a13d6daa5bU, 0x3dd62b7f3d08f4ebU, 0x3db71c03bd15cbf3U, 0x3d21dcc43d4eef44U,
  0x3d8d56dcbd8eaad2U, 0x3d2d39a83b6765bdU, 0x3d06a619be0fbc89U, 0x3d2274e53dce796dU,
  0x3d515b41bd22d731U, 0xbddd956a3df80e55U, 0xba8e1e98bd9f3600U, 0x3d22aa063c9ababfU,
  0x3d5ff7c9be0779beU, 0xbd793fa43da65078U, 0x3dbb7a833cbadd0fU, 0xbdf23999bde4b67aU,
  0x3d860d9abc9155b0U, 0x3de07a7fbd784891U, 0xbdd15b043d097e30U, 0x3ce7f6ff3d91bc68U,
  0xbda9d95f3df9c0b7U, 0x3ce651f93d8b35b7U, 0xbda9eb9bbc016e35U, 0xbca216353be3880bU,
  0xbddafff7bcc285caU, 0x3d44deb93da8abd5U, 0xbd9b62ddbd418583U, 0x3d90e416bddbd7bdU,
  0x3d82c49ebd453600U, 0x3dda25e93dda0cb0U, 0x3d3eba933d213e83U, 0xbd966289bd78059cU,
  0xbca92effbc021c07U, 0x3dd6fca1bd329fc7U, 0xbdc061393d18a769U, 0xbca489573da3bce5U,
  0xbe06659cbe035878U, 0x3c932c583ceb6e4aU, 0x3ca4b280bbcb2fa5U, 0x3d7eccedbc7407e2U,
  0xbccdb7143b94a8b0U, 0x3d9dd7e23d2a3c24U, 0x3dccc25fbe1c6520U, 0x3cda98c5bddcf6ccU,
  0x3e0d12c3bd0c939fU, 0x3df1da5d3d3bc635U, 0xbd5218743a618951U, 0xbd3718e8bdb728d1U,
  0xbdc1c196bce416fdU, 0x3d0b55d63de770f3U, 0xbdaf0666bdbf3394U, 0xbd8a4457bdb220e3U,
  0xbdaf9e2a3ca27522U, 0xbce8ff45bd168cb3U, 0xbce87d95bd6a8b83U, 0xbb71d4e33d2059a8U,
  0xbd651de23d994873U, 0xbdd676d33d8eea46U, 0xbdfe8ea43de322d6U, 0xbc891f5d3d1879daU,
  0x3d9e6373be0f77ddU, 0xbe611050bc52598cU, 0xbbeb77bb3bc7cb5aU, 0xbdf4c259be5fa580U,
  0xbe3d33e8be09ed7dU, 0x3d4c4fedbd83dd94U, 0xbe0fc966be456d72U, 0x3d5214733d0e19e3U,
  0x3cbd900ebde4414bU, 0xbc5a8f503d4441b9U, 0xbe411fae3d3ec70dU, 0xbe1b10cabe123bc8U,
  0xbdf501583ced38b0U, 0xbdb01a92bda596c6U, 0x3dbbd7ad3bef6322U, 0x3d2d0896bd8efbadU,
  0xbd0047b33cb1516dU, 0x3d47b66bbcaea8daU, 0xbbd9f646bdaf9202U, 0xbd5339d4bb93cb57U,
  0x3dd3d70dbe1836e8U, 0xbd05e113be2b6e18U, 0xbe12a7d3be1af431U, 0x3c2a09b4be13c980U,
  0xbe170003bd884e22U, 0xbdd293e9bd9f3615U, 0x3a5da774bdd4378fU, 0x3dc0c5a03cc9628cU,
  0xbd0f6dea3dd49cf1U, 0x3dc492e9bd5f0092U, 0x3db9f85ebdfb048eU, 0xbdd0eb5ebd54654eU,
  0xbe2af207bc22e9e6U, 0x3dce162bbe20e55eU, 0x3cd911ccbe240d45U, 0x3ba4b280bdfae6bdU,
  0x3d6fdc17bdc57a2bU, 0xbd07d60cbdb8ed1bU, 0xbdb16bf93e004977U, 0x3dd8316b3d66c65eU,
  0xbc943917bdda4982U, 0x3dd1c0193c8dc9f4U, 0x3d9990e8bdd0253bU, 0xbe1112ebbdbaea9cU,
  0xbe1feb833d365fe7U, 0xbced31a53d94f9d6U, 0xbd33a07cbde19092U, 0x3d048e833d07a91fU,
  0x3d90b29c3dbdf5afU, 0x3ca48354bd0f5825U, 0xbc461bbcbda9c57dU, 0xbd44a33e3b43ce2eU,
  0x3c489d85bdc8c30cU, 0x3df9b49fbe0453a7U, 0xbde7114cbe1933c9U, 0xbd857e103da54db9U,
  0x3d5c532c3ce3ab02U, 0xbb83e2ab3ad6fca8U, 0x3d1116ca3d93c897U, 0x3d18d3f63c0ca511U,
  0xbd228e87be115f1bU, 0xbde2de39bdaed7b2U, 0xbcf10c803d7f8c2dU, 0xbe0e4a20bdc04091U,
  0xbcace9023d5813c8U, 0x3ba347a4bd664814U, 0x3de26943bc97bdd6U, 0xbdeee2333dc94a3bU,
  0xbdfef8b2bd29f1f5U, 0xbca1334bbddd1ea2U, 0x3d9c46e73d36e550U, 0xbdf4b671bb89a996U,
  0x3d947e2b3d94fa00U, 0x3d4206133cd50dafU, 0xbe0a80d5be04e541U, 0x3d71f8bebd4b0e9dU,
  0xbddffdf53da6c72eU, 0xbcdfc660bde17bfaU, 0xbdc9c679399c6080U, 0xbdc80a4a3d8653d8U,
  0xbc9a8cc03c38f438U, 0x3d708266bcb57a9eU, 0x3ca339c4be092121U, 0x3d800a503dec641bU,
  0xbda98d27be06850cU, 0x3c2a9f30be15f7b7U, 0xbe1969763da3ff53U, 0xbdeaec6dbd4e7635U,
  0xbdbf8c8ebe23139cU, 0xbd17ecde3c2b50c5U, 0x3deb095ebbf51712U, 0xbd9ed88fbe2448d2U,
  0xbd99f0173beac025U, 0x3d6e59b7bc7780f2U, 0x3dcc3c4d3d0a5768U, 0xbd2afd3dbd63dd70U,
  0xbddf1c133abb0562U, 0x3d6956c9bc152392U, 0xbdd0b4743d18ba6aU, 0x3d2dd849bd566eeaU,
  0xbdd48bb6bd1e99e7U, 0xbdf43604bd1c3bdeU, 0x3dc4ca1e3d3e8569U, 0x3daa41a4b6f83000U,
  0xbdf181453d85c531U, 0x3dd748903d2269a7U, 0xbd6fb04abc2371f4U, 0x3cd7bfd2bd914fbcU,
  0x3c81ef133d8fbaa2U, 0xbdd1b6adbda1cbddU, 0xbe28b0ccbd4b6d6cU, 0xbdb93c253d518e82U,
  0xbd99d11abd500c9eU, 0xbe2c78ddbd25f735U, 0x3dcf50ecbdb013bfU, 0xbe0dd483bccd46b4U,
  0xbe362d273c465740U, 0x3dbf60bf3d5408e1U, 0x3af445c4be3bb29fU, 0xbd8380dbbd756016U,
  0x3dea2bedbddde59bU, 0xbc175c64bd57418eU, 0xbe22d0febdf36a3dU, 0xbd839236bd5d2007U,
  0xbdffd6493c755fcbU, 0x3d0322ba3cc02892U, 0xbc27ef70bdb7df25U, 0xbd41a6bdbdd0d6f3U,
  0xbdee67e7bd74a3c9U, 0xbd77a152be264082U, 0xbd108e42be48e92bU, 0xbd925abebde014ecU,
  0x3d817ec3bddc5226U, 0xbe3e1045bd4ed285U, 0xbd40563abd660b37U, 0x3d158e03bdf71877U,
  0xbb9bac61bc9b4e80U, 0xbe22ec633b81b2faU, 0x3da9400cbe2ee01bU, 0xbe265f1dbe49a120U,
  0xbd4b8f183d85f978U, 0xbdcda90ebd112930U, 0xbe3eccfa3d473f4eU, 0xbd1364143d314064U,
  0x3cfe93f1be102a14U, 0xbdc5fec3be4841bfU, 0xbdcea2113dec8394U, 0xbe0602e8bd5e8f62U,
  0x3e0789e53de29bf4U, 0x3d4c71a3bd838890U, 0xbe030e41bd783f47U, 0x3d10f0debdb40fadU,
  0xbda9c4cd3dfd22a6U, 0xbde7ad373df7053aU, 0xbd98c8333e10676aU, 0x3ae5115fbd9f797fU,
  0xbd91aee3bd1df78eU, 0xbdc65b333d6f6b87U, 0xbd5da32abddb7178U, 0xbd4b92043d5605c7U,
  0xbdb559d7bd527c58U, 0xbd058e4d3df97f29U, 0x3dff1c573e16b596U, 0x3e0b45333df5a86eU,
  0xbd0e3e2e3c674ba1U, 0xbde66000bd7874b7U, 0xbcc645cb3dfcbed6U, 0x3df62c9e3cb012a1U,
  0x3deb462a3e20fab3U, 0xbd28e17abdb962abU, 0xbc73eb4a3d607095U, 0xbdb480393e06b36dU,
  0x3d6beb273e2197dcU, 0x3c94a5663ddcb4a0U, 0xbcc489debbef300aU, 0xbcfe3f23bcae835dU,
  0xbdd822943de034e0U, 0x3b9ed20a3e17e92fU, 0xbdbd63363d7780ecU, 0xbda9a0b8be00060dU,
  0xbd00b2a0bc8a8c9eU, 0x3d7dec983db7dae2U, 0x3d65b05cbbba68d8U, 0x3c26fe0c3e09b4afU,
  0x3e1bc2afbd9b10e9U, 0xbdcadc763d55cadbU, 0xbdde735b3e364bf9U, 0xbcdc8541baa9be90U,
  0x3dd7e277bd1fd74bU, 0x3d0ea98cbd43c87dU, 0x3e11a5e8bb2a14c0U, 0x3db9c6553d6ba9a6U,
  0x3dd5fe88bc108b36U, 0x3df27f3a3e183abdU, 0x3ca8a47f3d8ea8b9U, 0x3dcf559c3b7e2c20U,
  0x3e2cf3e2bdb325adU, 0x3d857c5b3dae3b1cU, 0xbde68cbfbd03103eU, 0xbd90f3313df042abU,
  0xbdf005173e0596ddU, 0xbd67ec6e3db4d7bdU, 0xbd20a9ef3df7a9afU, 0x3d00654e398c6a98U,
  0xbd238ebb3d04116dU, 0xbd36c9b8bddc7bdfU, 0x3d1d89b43d7eeae8U, 0xbd09806bbc487a37U,
  0xbd948b17bdab0485U, 0x3e0556a93dbfa2b3U, 0xbc930ada3d97faf7U, 0x3cf443343d50fdecU,
  0x3dfb7f2f3e083954U, 0xbdfb2af83de63f45U, 0xbd7866103d4d520bU, 0xbc44cf2b3cbf05d7U,
  0x3df9b72a3e2d87fcU, 0x3e07d83abc6f517eU, 0xbd8540e63e126b89U, 0x3d829a9f3e3ec51eU,
  0xbd85af95bc0cbf52U, 0x3deec712bde99867U, 0xbdaf7e9c3df020f9U, 0x3d55927e3e117f42U,
  0xbbfa4a043de77821U, 0x3da4cb74bd4db8beU, 0x3d8e69f2bce976d2U, 0xbb95d33e3d50ed10U,
  0x3db1814ebc14af4eU, 0xbd2701803d9b8723U, 0x3cc6da42bd8b0b9aU, 0x3e10bd2f3cbf3aeeU,
  0x3d505aecbd941091U, 0xbdb43446bd0e530fU, 0xbd40a34e3dce668aU, 0x3decbcb1bd1832a2U,
  0x3e1b0856bde75831U, 0x3d50a25fbd6b2170U, 0x3e1298a13d90f9f1U, 0x3dd0c3693d0f337aU,
  0xbcc736073db65265U, 0xbd6a42eb3e04dc6fU, 0xbd06372dbdb7602eU, 0x3dbddc14bd227008U,
  0x3cc84f8ebdd7330aU, 0x3de0d0633e029d3cU, 0x3cdd0e703e115f82U, 0x3dbed7213da34e76U,
  0xbe1679ef3dd47962U, 0x3d86b1843d248b67U, 0xbd49d5dfbe1140aaU, 0x3d872e1fbdaf5950U,
  0x3692e000bd479dffU, 0x3d613299bdf3946eU, 0x3d05c6e93c178ec6U, 0x3e254dabbd9214f8U,
  0xbd2ae2fbbd1a657cU, 0xbd9f0aac3e09b30eU, 0x3e1bdbccbcb0b5e0U, 0x3e3c2301bdefbbaeU,
  0x3b7500653dada536U, 0x3ddee87f3d6a1e5cU, 0xbc51b84f3dce00afU, 0xbd7f52a93cf01b55U,
  0xbd033da5bd0c61fbU, 0xbdb43e47bb5902fbU, 0xbdacdd7a3c489a10U, 0xbdbd7810bc45fc2fU,
  0xbdc7e3cdbbb35b4eU, 0xbd61d46c3e05d9a6U, 0xbcb7d81c3da6220eU, 0xbd34d0bb3cc3a745U,
  0x3c6c35babd26236eU, 0xbd6621673d586862U, 0x3d6b35983d254971U, 0xbd722f713de381b9U,
  0x3d5eb68a3c208d28U, 0xbe00ee703da1909cU, 0xbdd0de103ddbbf2aU, 0xbda07d623da62647U,
  0x3d5a6c51bdeae2fdU, 0xbd86fbc13d3d8907U, 0x3d01adf83dfde7acU, 0x3d7dabb63c677210U,
  0xbd442354bd2d6305U, 0xbdbc5094bdf11e7cU, 0xbd5028ba3d81e86cU, 0xbdd8020dbd2f1c3bU,
  0xbd1ad3303d79777eU, 0xbdaa6c70bd8ad9c6U, 0xbdcddb733dc39002U, 0x3dbd48cc3d83535bU,
  0xbc677e243c8c4a18U, 0xbd8c18afbd997110U, 0x3ddbb410be2c6d34U, 0xbc8397c33ce7890eU,
  0x3d4d3d543dac6f79U, 0xbe0514f93c183a98U, 0x3c8f8cdfbe058444U, 0x3c6910febd029f7dU,
  0x3e0668cbbc85c082U, 0x3e1755cfbd925477U, 0xbe0b1c1f3e019114U, 0xbd95b9293df70776U,
  0x3dff8eb53ddab4f6U, 0x3b940d02bd7c2ffcU, 0x3da7e6f1bc48a513U, 0xbd0eafc73e0356c7U,
  0x3ccd8fbfbd96c05fU, 0xbdddd9e1bc956a10U, 0x3e0c29563d8be7b7U, 0x3cf00ab5b9beeb20U,
  0xbc92e4b43e0355a2U, 0xbd3c27203da48f20U, 0xbe03ac0f3d9b3622U, 0xbdd6ecf03e0e6b67U,
  0x3d89aef1bd6f80baU, 0x3d8ecc38bd392c22U, 0xbdf03fff3e0f9887U, 0xbd68f7043d602075U,
  0x3d0f5f413da742e3U, 0x3d02d2803cde515cU, 0x3e0d3971bd43308cU, 0x3d9d39e7bd4de184U,
  0x3dc5ae063e31a66eU, 0x3c2f14033d98637eU, 0xbe02c8ec3d8732b3U, 0x3cb511373cdf1df2U,
  0x3e1182933d8c3909U, 0xbd22fedc3df37ccaU, 0xbdfccb4b3e230ac9U, 0x3d946a1abde0e027U,
  0xbdebc19b3ce2caf8U, 0x3dd71824bd8aff3eU, 0x3d925c04bc0e1f62U, 0x3d315afb3d4f3ab9U,
  0x3dc05001bd4eed11U, 0x3dd7140ebdd9297dU, 0x3dddaa633dcaf262U, 0x3d98ed8f3de48611U,
  0xbd9fa66cbdde770dU, 0xbd1b6311bdb5d800U, 0xbdb8d46ebda31dfaU, 0xbd1e9ed53db1ea55U,
  0xbdd577d2bd603ca7U, 0x3dc1969a3ded55f6U, 0xbe01fa69bd94b204U, 0xbd5c8f91bdfcbeedU,
  0x3dfbe301bde4b093U, 0xbcf01d22ba3c9200U, 0x3cf9009e3dbc84f9U, 0x3ca835f5bca855f5U,
  0xbd0739e9bddbdca3U, 0x3dc9b0233de0ed27U, 0xbcbe9eb9bb020ae8U, 0x3da34d6b3d98fa64U,
  0xbd8d2b38bdfa998fU, 0xbd236d03bdaf299bU, 0x3d442cfc3d95af7cU, 0x3e03577a3d57c5b0U,
  0x3d8ba9cbbd78879fU, 0x389744e0bd548fb3U, 0x3dde42333da1f6e9U, 0xbdb50ef1bda25fa0U,
  0xbe2eb52b3de9450dU, 0x3c95c07ebd4d91ccU, 0xbdc6fd51be04a81aU, 0xbe2d92b83d7ea843U,
  0x3c17e7b43d974db2U, 0xbdf72e41bcf5755eU, 0xbe1989bc3d8df0cdU, 0x3d2a1a6a3d841f3dU,
  0xbd586061bdfca549U, 0x3aef52193d05f3cdU, 0xbe0f67563d7c4b2bU, 0x3d444733be1fcd46U,
  0xbdface06be0ed429U, 0x3dff9a1a3d0e47e2U, 0xbd13bc40bcdcf06dU, 0x3d7aa8c2bdac4197U,
  0xbd7f376d3d3a2b09U, 0xbc245733bc7cee5aU, 0xbaf8daa4bd526afcU, 0xbdde2a69be220f5dU,
  0xbc8ae137bd47115eU, 0x3db8730a3e1dbf1cU, 0xbbc982bcbdff8522U, 0xbcd64d503bf828dcU,
  0xbdb696613de0e930U, 0x3dcea67fbda13485U, 0x3d9f1471bdf0eaeeU, 0xbcbaafeebd9c758fU,
  0x3e1bedc33db59d08U, 0xbde949b4bbd257b9U, 0xbe11e90c3c6aefeeU, 0x3d580e4cbd93fde3U,
  0x3d48f98c3d0e838bU, 0xbe13215d3db59f99U, 0xbc810654bd987c26U, 0xbd54c9dbbdd1b074U,
  0xbc22383fbdcfb26eU, 0x3d9d097ebe03c408U, 0x3db760e53da30ac7U, 0xbe026ed93da7d3ccU,
  0x3ca8faf4be07e95fU, 0x3c30af08bcdd7b4bU, 0xbde8b9e53d8a151aU, 0xbd0e812abe1f4a33U,
  0xbe0dcc323d9fc24aU, 0xbdb9777f3e23c798U, 0x3db022923db7e1ceU, 0x3d2a16f7bde17f36U,
  0xbdbf50623e1c9ef7U, 0x3d0deb6cbe063dbcU, 0xbd6ee889bbaa0538U, 0xbd54ed8d3e0be61eU,
  0x3d8d75693c3cc1c4U, 0xbd1d813cbdd0725fU, 0xbdc068a23e18009bU, 0xbd3fabd63d320823U,
  0x3caa4bb0bd88278bU, 0x3e118a63bd8ae08eU, 0x3df8ddc63dc24e88U, 0x3e040880bdc0f8afU,
  0xbc94f0fc3d3e587cU, 0x3db7af153d5d9fecU, 0x3d14519a3ce1a2cbU, 0xbc823e5e3d163c2eU,
  0x3b8e2de9be0e7943U, 0xbe00f8fa3dbf3bfaU, 0x3df4383b3dafb35dU, 0xbd050f4a3cd2fd9eU,
  0x3dcc867bbdc9e4acU, 0xbc7510be3e0ac5a8U, 0xbd863895bd3e42acU, 0x3c170fb93e1c6e08U,
  0x3e1c7c553e1312b3U, 0xbc74d7da3db7e32aU, 0x3ce336ccbdd845d5U, 0x3e2266e63e2f0aedU,
  0x3da31284bda956c3U, 0x3da7e7be3d3814d5U, 0x3dda3035bda94000U, 0xbd636d513d577b0fU,
  0xbc94ff1e3d0d91a7U, 0x3da00a953d505b54U, 0x3d2c41813d5ad87cU, 0x3c44c9603e0143faU,
  0x3d203c133c45bd77U, 0xbd5effe8bda51eccU, 0x3d1c4834bd9f5f4cU, 0xbe462f18baa9e31eU,
  0x3da9d79fbda19149U, 0xbcc4a125be2d88c9U, 0xbd91554cbc290762U, 0x3de716b63d2bfe2fU,
  0xbdd9ad39bd81a704U, 0xbcd4aef03df9b31bU, 0x3da4199f3dacbbbaU, 0xbd7de34fbdf22bbeU,
  0xbda6eae5bbc9b542U, 0xbd8e5bc33c378e27U, 0xbdd4989b3d8fcc8dU, 0xbde7871f38a99baaU,
  0x3e0112c4bd658c85U, 0xbd69093fbd9535a8U, 0xbc9bd9ba3dba2e59U, 0xbbc05f7fbdcbf9adU,
  0x3d8ed6bcbc607d66U, 0xbe00af35bbd8d777U, 0x3e07d5f6be235a9eU, 0x3da69036bdf3c692U,
  0xbe383b64bd91caadU, 0xbdc9b517bde388fcU, 0xbdb3452ebe262b4aU, 0xbe35c935bda88170U,
  0xbd94ebc1be0bba09U, 0x3d98799d3cbe1bc4U, 0xbd4cc823bdc5df6bU, 0x3e07048bbbcc10beU,
  0xbc86dababe33d085U, 0x3d41727abcc90884U, 0xbe00ed7fbd9242b0U, 0xbdf776df3c80dcd1U,
  0xbe020cc2bd4723b2U, 0xbc697493bdb9a688U, 0x3ddfed7bbdd6b099U, 0x3da3032c3d9fab13U,
  0x3e0585b13d302d5eU, 0xbd8eb514be1a69d8U, 0x3d2e9669bc10b4d7U, 0x3dad320b3dc04203U,
  0x3d0d4d2abdf99af4U, 0x3dbc81133c61c1ebU, 0x3d8b14f6bde1597eU, 0x3dd883763d772331U,
  0xbccaaa653da7f8f9U, 0x3d3accbbbcc09f75U, 0x3d4e83f2ba436200U, 0x3d5a73cb3d404061U,
  0x3deabb02bd18744cU, 0x3d3f5e663d855e03U, 0x3d8ae1db3db19547U, 0xbdcb2bf7bd568535U,
  0x3d227cdebe01eb19U, 0xbe0d606d3b0e6b1eU, 0x3e07e2533d8f21c1U, 0xbcdb7041bd90ff1eU,
  0xbe063db3bd72446bU, 0xbc682b1abc3c7155U, 0x3d9d8169be027729U, 0xbc68f7bf3c821819U,
  0x3d2f6a5abbf7d617U, 0xbe1608e43cb446f6U, 0x3db43c0b3c8e3f3bU, 0x3c9d1d39be15781fU,
  0x3d732570bd250810U, 0xbdffa5a73b0147c7U, 0x3e13fcd2bdb33803U, 0x3dc96a7d3c05b451U,
  0xbd3e6b86bdb07cfcU, 0xbdcbcd813cb47351U, 0xbddf13b53dcb68feU, 0x3d5c35e93de11cc2U,
  0xbdb4af2f3d6879e2U, 0xbdce39febcd8d64bU, 0x3dd53f603dae17f5U, 0x3d536bc83d9bf523U,
  0x3da0ac85bc9110cfU, 0xbc575d39bdc43b9fU, 0x3d22ae483dc8e49dU, 0xbe0c11973d1621e7U,
  0xbdcf97dbbdf06c31U, 0xbde625febe14f803U, 0xbd45b9c8be00b244U, 0xbd8b7fc43c9c0b05U,
  0x3de115aa3dbb88d0U, 0x3bdb615bbde966f1U, 0x3d67e5633da49a99U, 0xbdf782063d8707b6U,
  0x3de9dfd8bc9c3deaU, 0xbdcb9fbd3d8603c4U, 0x3daceb673dc8c539U, 0xbdb031e5bd01c264U,
  0x3d3382333dad8ba3U, 0xbdf61fff3d85b64bU, 0x3c06afe5be047be4U, 0x3d325fc7bdc34d93U,
  0xbe1a43e63d56cefeU, 0xbdd86d053d635195U, 0xbd283009bde949eeU, 0xbddc405cbd49a96aU,
  0xbc87f63a3e039763U, 0xbce961c93d42b7faU, 0x3d26dd423d26d300U, 0xbd731906bd35a663U,
  0xbdf07c6dbe12b9cbU, 0xbcc6ed51bddc9ff8U, 0x3db705c9bde4a772U, 0x3df7647f3cca4426U,
  0xbcbca284bda0ee73U, 0xbdcec72ebd30f303U, 0xbe0731b2bd3374c8U, 0x3c19906ebc70be06U,
  0x3db65a3bbdca5fc7U, 0xbcd24db7bdf8cafeU, 0xbda0521c3e004f57U, 0xbdf318823d6c11edU,
  0x3d2f3eb1bdb0c761U, 0xbd808fa1bdf8d02dU, 0x3cee89afbd5bc3c0U, 0xbc99c74e3d919bd8U,
  0xbde13edcbd8fac11U, 0xbcf0ae54bd3454cbU, 0x3db593713db61596U, 0x3d4327aabdb55f5fU,
  0xbdbcac27be157303U, 0xbe14f7f2be1cce46U, 0x3d3f25c7be0ffb37U, 0xbdd1a72f3db2ff71U,
  0x3d91086dbddc8391U, 0xbdb7f340bd0fbda0U, 0x3d1044903d85e1a0U, 0xbd9ee854bbeecaa5U,
  0xbe2636043dac783aU, 0xbde74f2d3d6cc200U, 0xbdff794bbd4d7d80U, 0x3d1b598ebce7fa78U,
  0xbdabb3373c3b6ee7U, 0x3d8d9d9dbded9bd1U, 0xbdfd85ab3cf37d6dU, 0xbb70c0943c0d783dU,
  0xbc6545503de1c243U, 0x3d9db823bbacae6bU, 0x3d6546c0bd8880c4U, 0x3d7365823d4a170eU,
  0x3cbaa22bbd8a90ebU, 0x3ce414c4bd3b13c2U, 0x3e050b073d7a7dd3U, 0x3db20ca5bd73ffc1U,
  0x3dd071b73c45ed44U, 0xbdd9e656bd4e1e0eU, 0x3dd971f3bdebcadcU, 0xbdf9d60c3e049b45U,
  0xbbd457563b1e36bfU, 0x3db6017b3d9a85cdU, 0xbdecbfbabdb4f4c5U, 0x3d9e109e3da09152U,
  0xbc5d7ccfbd13133bU, 0x3d759b83bdb000caU, 0xbd98a7debc486927U, 0x3c05478bbdb40c7dU,
  0x3d8d7c4bbd76f6b2U, 0xbc2ede843d00e5a5U, 0x3aafa1913d8173d7U, 0x3e0279473e29f08bU,
  0xbd7aa2d83d2ed1dfU, 0xbc2134f53db336e7U, 0x3dfa3d16bc85178cU, 0x3e0d41c83d177964U,
  0x3df3e540bda758d8U, 0x3d65426d3dc28506U, 0xbd1a61b4bdbcd8caU, 0x3dd8b4593d4e7f41U,
  0xbd58acebbda23bb4U, 0xbcb33ac3bc6c47b6U, 0x3d99282fbc6fd193U, 0xbd93dd52bac46e9fU,
  0xbd64dd273d661d35U, 0x3deb05d73e10c6e0U, 0xbdb386f6bdb3db0aU, 0x3e24afe2bbd9f706U,
  0x3e0a639d3e0d877fU, 0xbd290e8cbd06d035U, 0x3e10d9e63be0c251U, 0xbdcfde013e039bbeU,
  0x3dd08e163b39ab67U, 0x3e2497f3bbbeda44U, 0xbdb9e5e53dab08caU, 0xbd659cb039fdfdecU,
  0x3d57c6d53dffd1d7U, 0x3d61ffe63defafe1U, 0x3ce4e72a3e400e84U, 0xbce181acbdb3f59dU,
  0xbc2ed6e4bddadabbU, 0xbcddf1adbc77fe39U, 0x3e0ab8a7bd96359dU, 0xbdeefeb13e17ff7eU,
  0x3df491013e20616bU, 0x3d65e0aabddabe32U, 0x3aaaf21b3e121c7aU, 0x3dafa19b3e5bd9b4U,
  0x3dc2c5d33c2b378dU, 0xbdc37ed3bd528491U, 0xbcb22388bcf16273U, 0x3d4f24dc3dcf57daU,
  0x3dd379493c0043eaU, 0x3db0a19a3e18fe63U, 0x3de2fa50bdd3a043U, 0x3cc33f25bd83ba1eU,
  0x3d96f4213d21c520U, 0xbc9326b83dd23bf5U, 0xbcb4a2ad3e21be6cU, 0x3de5403d3e55daa3U,
  0x3dd5948f3dffadabU, 0xbde0b5bf3e0441e6U, 0x3df9efa23e6909daU, 0x3e070f233dc104e3U,
  0x3dbb659c3d1bbe6aU, 0x3c86e8aebc55d739U, 0x3d803b4ebc77472cU, 0xbde6d113bdcee13cU,
  0x3dfcd2e53dcc7b4dU, 0xbd36fbda3d5e6860U, 0x3cd616463cf40098U, 0xbb8785e93dc89af1U,
  0x3e4c4cbb3de25741U, 0x3dbc0efcbc8d25bfU, 0xbc8ae8943d06b66aU, 0x3de36d4bbcc80526U,
  0xbb8c97563e1f1b03U, 0x3d39a4a43d62d86dU, 0x3dd2f478bdce8334U, 0x3d03f2053d9569a3U,
  0xbd08bea03c36faecU, 0x3de4ca0fbdc4e846U, 0xbdaeb6e03dfa7c39U, 0x3db72b4e3defc175U,
  0x3e25cb2c3de822d9U, 0xbd9e81abbcda6904U, 0xbd5bb4773e231b67U, 0x3df0459cbde68c9bU,
  0xbe1881663db7f94bU, 0x3d978b753de05b97U, 0x3e44eb673ce5995fU, 0xbc9a83c0bdb8ab60U,
  0x3e2c40213e3d929eU, 0xbb3053023d97569fU, 0xbe176b5bbd08110eU, 0x3d673ccf3e3e9feeU,
  0x3e2a70f7be011610U, 0x3daff03d3d7e9c99U, 0xbc1354d6bc19a69eU, 0x3c919aa4bddbeb11U,
  0x394577e0bccb0a8dU, 0x3dea23513e166bb0U, 0xbba20c2abe159f33U, 0x3de9c7393d18cd1dU,
  0xbd015e22bd795dccU, 0x3e223bda3c0041beU, 0xbe1b9055bdab72a8U, 0x3dc4537dbc3d62c1U,
  0xbc40c839bdc7b5d6U, 0xbdc0cf773d311c54U, 0x3dc322333daf06f6U, 0x3c15bebb3bb41ec9U,
  0x3cd92779bcd272fcU, 0x3d34fa9f3b8e46b0U, 0x3d99c9343d628f85U, 0xbd3acf8fbdc4ee55U,
  0x3b80b1b5bcfb30f8U, 0x3e088838be285f6dU, 0xbd75bf57bd599524U, 0x3e07ff783daa869bU,
  0x3d03bbad3c9f2a03U, 0xbc1d6669bdf0d67aU, 0x3df6dfd73d8b6631U, 0xbde5a887bbdd49bdU,
  0xbbd3f9423d5b72beU, 0xbd7847113d829e5bU, 0x3c634ba5be0f7283U, 0xbdcbe7debda1a27bU,
  0x3e072d29bdd36871U, 0xbc890db63d38ebc3U, 0xbdb5890a3d8e39c9U, 0xbd8807213afebb3bU,
  0xbd5d67b43d9646dbU, 0x3db0d2bf3d2cf0e3U, 0x3e0946bd3d4147a2U, 0xbdc74915be0e3412U,
  0x3d346e4c3c99a3c0U, 0xbc59aa97bdf067baU, 0x3b9287e5bd7c418aU, 0xbde52ee33cd3e9bdU,
  0xbdec4d523cf4fdf6U, 0xbe1bb4abbe17adabU, 0xbd9080bcbdd9f80eU, 0x3d920b15bd14ce48U,
  0x3e006941bcdcac1aU, 0xbd2622a4bc19ad4dU, 0x3dd4c4803cdb775cU, 0xbd7cbd88bdd24025U,
  0xbdd23ff53e07685aU, 0xbb94755abd69b072U, 0x3ca408aabd77320eU, 0xbdd13f57bd6e82e0U,
  0x3d3499ccbd49e173U, 0xbdc1a27fbe2298a2U, 0xbd62eb2d3dc716f5U, 0x3e05510e3d69fbfcU,
  0x3e0a69a5bdfbec51U, 0x3ad2b13abc45344eU, 0x3d865d5bbdb315e3U, 0xbdb14bd03dd0fa25U,
  0x3dc62bb83dae6d9fU, 0xbd5e08543d0e4cddU, 0x3d85448d3c289e3eU, 0x3d200259bd58c1acU,
  0x3d30af5ebce5cc97U, 0xbdde2d34bdab8650U, 0x3d7e00473c5efe6fU, 0x3be03109bcfd8214U,
  0x3dfde3eabd87469fU, 0xbd81aa533db175b7U, 0xbced78843d56b157U, 0xbd465ec7bde47424U,
  0xbdf12b2f3ddf2ff7U, 0x3cf2a1f13d87ce8bU, 0x3c7f17d6be14f1c5U, 0x3d235e9fbca68ffcU,
  0xbcd405673dd49255U, 0xbd327007be173937U, 0x3d014d453def29ecU, 0x3dee17c4bc5cb04cU,
  0x3d597d673dc23521U, 0x3d13696abdee2439U, 0xbda00781bdde43d7U, 0xbd31f8e7bd9bd714U,
  0x3b6e97cebd3abaedU, 0xbdb6ac5c3dc0d3b7U, 0xbab240503d004d4fU, 0x3da28382bc844b2aU,
  0xbd3ae7fd3debedc3U, 0x3d0ebc973c0485c1U, 0x3d431a253dc701c7U, 0x3c8bcdb23d4f3399U,
  0xbd6ea35fbd8f3380U, 0xbd03f01abde9ba98U, 0x3d378f79bcba4c94U, 0xbd672f92bbcdb455U,
  0xbcfa54293d63cf62U, 0xbd0246c9bd973203U, 0xbdb1326ebdf7cbcdU, 0x3d9b5c55bd3b27d0U,
  0x3d45c2973d13a32eU, 0xbdf68ba8bd778bddU, 0xbc0bcedfbca0cdbeU, 0x3ccd8580bcae96c6U,
  0x3caadc093d48aa09U, 0xbbba46c93dc34405U, 0xbb3621b0be0bdb28U, 0xbc3cfa243dab41b5U,
  0x3d209a0ebb5ef8e5U, 0x3e025bb0bb1802a9U, 0xbe05f22e3d22dc72U, 0x3d6616253d8d31ffU,
  0x3db9cefabe0804c6U, 0x3e0b9e95bd3c7aa6U, 0x3ddd01b53de7038fU, 0xbc7cf1c83dedda53U,
  0xbd02a266be11638eU, 0xbda827de3dd6025fU, 0xbc37a6d1bce29f92U, 0x3de9ee793dac5c18U,
  0xbe248a5c3df97fc1U, 0x3dd78045bd4089b0U, 0xbdfd57b2bdb614e9U, 0x3d956da43d944d6fU,
  0xbe096f313d83102fU, 0x3d15ad97bdddd14bU, 0x3da6d8d2be0163f4U, 0x3cc11672bd54ca9dU,
  0xbdf00cf93db0ea06U, 0x3d5226f2be07d67bU, 0x3df643e6bce3c13cU, 0xbdce4f6abdbbd40eU,
  0xbcb8ee6b3d48f483U, 0x3cf48663bd4b1c14U, 0xbdf19a4639940c9bU, 0x3d1eb33cbe10ca2bU,
  0x3c4bae2abdefaaeaU, 0xbd07d2ce3d9d9baaU, 0xbbbeef79bbee79b8U, 0xbdbeb4403c84a6c9U,
  0xbdcd0236bd7d06d7U, 0xbd1f8bc63dbc32daU, 0xbdd4ca38bd8d7e6cU, 0xbd52a0d1bdcd35a6U,
  0xbd9c4ec3bbe41102U, 0xbddb54fabdf797c0U, 0x3d9a40a3bdb71b9bU, 0x3e141ff93d07502aU,
  0xbe0db03c3d1d80aaU, 0xbd5f01e3bd1cc937U, 0xbd3bf9263da45effU, 0x3d12b5a3bddb1371U,
  0xbd802e113b668ae6U, 0xbdd6b393bdcf7888U, 0xbd14abbe3cf1e99dU, 0x3d85c1613da3022fU,
  0x3e1b5a4c3b975f64U, 0xbdc4b51c3dd3a948U, 0xbdb050b1bcdcadd8U, 0x3bbe245bbce65456U,
  0xbd8893c3bd6b7f21U, 0xbe02ea453bf2bc1fU, 0x3e116bad3d84a1f3U, 0x3d9a99cb3db5f569U,
  0xbd7a2d983d417e02U, 0xbc9a60893c7569ebU, 0x3ccfbe273d9e31c1U, 0x3ca030483e09fb9fU,
  0x3dc511763d2207fbU, 0x3d8ac0b33d570cfcU, 0x3e006a563df6fd0dU, 0x3e1bcc4bbc8fb6c5U,
  0x3d3aef57bd9860dcU, 0xbd4d364f3ccc94a7U, 0x3e0016243c6d6299U, 0x3da96f0c3d397d04U,
  0xbd9d0bd1bcf96705U, 0x3e0d883a3dd46cd0U, 0xbcc157be3dae88d3U, 0x3d6ef43dbd9d3775U,
  0xbb648356bc1e83c8U, 0xbd10dfcc3b9c80e3U, 0xbc3c9169bd877144U, 0x3daf5ef53dbe3124U,
  0xbd0df4fb3e039ff0U, 0x3c35c4cf3df020f4U, 0x3dd003d33c84e059U, 0x3e0bc718bc718d5dU,
  0x3db635893dcc2701U, 0x3cabc9ba3dc72acfU, 0x3db4cdab3d12b9ceU, 0xbd87c6d5bd701976U,
  0x3d1013ca3e00d584U, 0xbdab84243df877fbU, 0xbdb553babe152c90U, 0x3b88df883da72fa1U,
  0x3a8956de3d8aa0d5U, 0x3d933dcfbdaf0cc5U, 0xbbfe3d463da08cf8U, 0x3d09d4db3c68d402U,
  0x3c93dd3e3d808870U, 0xbd3da670bd93fca6U, 0xbd8be3b4be105564U, 0xbe2ecfed3d8655dcU,
  0xbdf4fb373df84982U, 0x3dbb92c2be063e1aU, 0xbe122524bd83190eU, 0x3c38cdb1bd520ce6U,
  0xbdac0af2bd15b3b4U, 0xbdff2635bd8aac6fU, 0x3d898c9a3db4f986U, 0xbdba325abd71438eU,
  0xbdb93f95bd13215aU, 0x3d49c3df3db2acc3U, 0xbc0d18e03da479fbU, 0xbe289f513dadbdb8U,
  0x3d920f81bbef5c15U, 0xbb6ed05ebde034c2U, 0x3ce65662bd037f48U, 0x3d6bfaddbdcb095eU,
  0x3dcd79b9bda5677fU, 0xbe3650c9bd7582f4U, 0x3d857748be03f6abU, 0x3e0923063d527d91U,
  0xbe261149bd755a63U, 0xbdfe5b8e3d821296U, 0xbd36ef4bbe2e9a93U, 0xbd6a179bbd854ef3U,
  0xbd01db51bdd35551U, 0x3dc2ba753ccc4a05U, 0xbe18aa12be067776U, 0xbe09733a3d1ac3e5U,
  0xbd4e5c81bc8b39b3U, 0xbd39eba7be170accU, 0xbe0748ea3df1fd5bU, 0x3dc014a03c953a68U,
  0x3c8fddee3d6f5c08U, 0x3c86fe293e0228e3U, 0x3d0d57be3d476a8cU, 0xbc69f84ebbbea38eU,
  0x3dc30e513c06fabbU, 0xbd16aa42be16a5ebU, 0xbddeb0f43bad1a6aU, 0xbd24d0173debbc49U,
  0xbd842fa0be1a7f1dU, 0x3d0569d03d8cce6cU, 0xbc8b1cc2bdbfefa4U, 0xbd8a96c73abad9cfU,
  0xbe4492153d4c35c0U, 0xbd15fd1b3dd96dd9U, 0x3d3ec80dbe18461aU, 0xbdb13932bd29040aU,
  0xbd55b32a3d0fe8b7U, 0x3ccacb42bccf0879U, 0xbd7594073d5b3074U, 0x3da6e0c43d95cf46U,
  0xbdac7279be1dc3a2U, 0x3c34cae7bcaa308aU, 0xbde79af1bc534d1aU, 0xbd9cb03dbc9e8ae4U,
  0xbe09cd6fbd635810U, 0xbc8ebc253cfb0842U, 0xbd76cdf4be350e02U, 0xbca90a5abdfff8c1U,
  0xbc7b50583db027fbU, 0x3d82bd04be495ca2U, 0xbd27511ebe1e90c8U, 0xbd6e8690bd99a9beU,
  0xbd815e05be2323abU, 0xbe1929d8be13041cU, 0xbd1233a6ba759714U, 0x3da5fddbbe352df0U,
  0xbd01d5abbd947ff2U, 0xbdde07c6bce2a2b3U, 0xbde90314bde02b2fU, 0xbe52f8debddf0c82U,
  0x3dca8a0ebbceb013U, 0x3d3186c8be4b0e9dU, 0x3d81d3f7bc7ffa47U, 0x3dcc092d3cf55648U,
  0x3d644a90be2b74b6U, 0xbe501d873daea173U, 0xbe0945183d8bc392U, 0xbd6182cc3caa7a19U,
  0x3d55af41bdd4098eU, 0xbcbd37a7bd4e3fb8U, 0x3dc74c5ebe3654caU, 0xbe01630e3dcdcd8aU,
  0x3d88fbb3be0137e6U, 0xbd6a238ebdbe90c5U, 0x3cff4b4d3d8c02ffU, 0xbcdd69d1be1e2085U,
  0x3c56d18cbe2c0488U, 0x3c64910ebd832967U, 0xbd06d12f3d49ded8U, 0xbd72b4c7bd5a513cU,
  0xbe0ade203dc67d3dU, 0x3d31ffe9bdfc929eU, 0xbde2e1f53d8b677dU, 0xbbe7044abd4b010dU,
  0x3c7b02d9bc8cbd52U, 0xbca446cdbcc7c60dU, 0xbe0eef603da3aa49U, 0x3dfd4f64bd15cdf2U,
  0xbde1710ebe0c12ccU, 0x3d49cd573d6eb515U, 0xbcf8191abdb85c25U, 0x3d86970c3d5c920cU,
  0x3d3e015a3cb3b2f1U, 0xbdceb7be3d47da8fU, 0x3dbd032abe085659U, 0xbcd793e5bd13839fU,
  0xbdc47cd2bde9e28fU, 0x3d7af928be1315b4U, 0x3d04b74a3c207979U, 0x3d9955d43d0f5e7aU,
  0xbcc0fb99bdc76addU, 0x3dba3bae3e16cdb6U, 0xbb029ebd3d6c7d93U, 0xbc07ad3e3c9c22b6U,
  0x3d0777803e2403f8U, 0x3dfcb6763da23323U, 0x3cd631cc3d9bbb31U, 0x3d7851833d87e7ebU,
  0xbdb0e33c3c186662U, 0xbdf78afdbc2e40baU, 0x3d4f979bbc019da4U, 0x3e2540733df57a8fU,
  0x3e008f4c3d470f9bU, 0xbd403b3a3d9d5fd0U, 0x3d10a61f3e069691U, 0x3c983e95bd8d7aaaU,
  0x3c7c1678bcd2e6edU, 0xbd465cbd3d8a573dU, 0x3c1bfe643da206fbU, 0x3d41eba73bdae68eU,
  0x3de68d8a3d764a79U, 0x3d839bc33da19f9eU, 0xbd420cc0bddb36bcU, 0x3e0869ed3d03034eU,
  0xbcfec86cbd9728cbU, 0x3e20fe7d3e0726feU, 0xbdd8301ebdd2eedaU, 0xbdaf02d53cad694cU,
  0x3d3968ee3d0ff636U, 0xbd95b7b73ccdd328U, 0x3d0b0cadbd56c8a2U, 0x3d32c19fbd8c56a9U,
  0x3d0db5ccbd3e6664U, 0x3b51a7fa3e05fc24U, 0xbc8e05463e14c739U, 0x3e0fa583bda1b3afU,
  0xbc72586abdb69770U, 0x3d9986433bb311edU, 0x3d63c0d63d1bb560U, 0x3c4965dc3e216ba9U,
  0x3dd39db03c61726bU, 0x3e2371403cf0851eU, 0xbe094d3cbd85e06dU, 0xbd1faea9bd87afcbU,
  0x3ddd32063dc338e2U, 0x3db3955ebcc6dde5U, 0x3d711e4fbdbba7dcU, 0xbd12dd10be09bb7bU,
  0xbdeab1c3bd12d610U, 0xbd3213febc84e3f3U, 0xbbffd0023d253b71U, 0x3d3fc0e5bd85c78fU,
  0xbbb46b2d3c54ca0aU, 0x3df4e171bda8b958U, 0xbd20d83a3d5683f1U, 0x3d57dd0bbdc12bd5U,
  0xbdb6d37dbd5de1c3U, 0xbcdef4d63d6e5809U, 0x3e052295bdba7a4eU, 0x3cde4f38bc44e12aU,
  0xbd3c3580bd714157U, 0xbd770d2e3dc01ac5U, 0x3de2e7fc3dcca4c7U, 0xbd0668d9bd5d847cU,
  0x3e1fae213da4d6f3U, 0xbc2dbceb3d7e62e4U, 0x3d75e846bd76d80fU, 0xbd99428cbcb5ba73U,
  0x3d8f04503d5d0710U, 0xbddf7aef3e0a1072U, 0x3e21fea33d632a43U, 0xbd8d95b73dc7298fU,
  0x3e0d502f3d62ca7cU, 0x3d6a7e273e213240U, 0x3d305b74bd6932caU, 0xbd1de208bc042cbcU,
  0x3e0818223da3e06bU, 0x3d5deaf33b01fdb9U, 0xba6929803dab62f6U, 0x3e13b4aa3d125e88U,
  0x3e18f1173c3eb82dU, 0x3dfd57e03e1c075bU, 0x3d19d1983d86d095U, 0xbd9bb2a5bddbfac0U,
  0xbc46bbce3e0513fbU, 0xbd6129c0bc093ed0U, 0x3dba84f83ca94bc5U, 0x3dff74873e3ffc9aU,
  0x3dc5d3a7bd9d8600U, 0x3dd23531bdb2d472U, 0x3dd01156bc941e4cU, 0x3d3ed964bdb8265eU,
  0x3e026bec3d7793a3U, 0x3ddce7c0bc02e0afU, 0x3dedc1cf3e0e2a96U, 0xbc82b66fbd901c65U,
  0xbd79f64d3e47af88U, 0x3e0568673d851f45U, 0xbd281876be05dbc8U, 0x3df2f062bd0bd53cU,
  0x3c808fc93de9ac26U, 0x3e2106b63d2db3dbU, 0x3d50b861bc816e4dU, 0x3e1257443e0ed18cU,
  0x3d2eb6943d37a8aaU, 0x3d178d0b3d5e7bd5U, 0xbd206b98bd88959eU, 0xbdec297f3cab3839U,
  0xbd8f0b19bd3bb0b1U, 0xbd2da6793dda8d5fU, 0x3df8d62a3d206965U, 0x3e10e4063dcd1127U,
  0xbd83ff5a3d4a42ffU, 0x3e04223fbcaae98dU, 0x3c8517b73d623a6aU, 0x3d7d54843d79e549U,
  0xbd0ff1d1bc3fbe8dU, 0x3dc956313d80e537U, 0x3dda2bcd3d99abb9U, 0xbdd1670cbd5c995cU,
  0xbd5d6a6b3daf29a6U, 0xbd5aa6573dd45413U, 0x3d9b8f783989ea02U, 0x3cf7472f3e288995U,
  0xbd09454fbc72030cU, 0x3cc548023e032adcU, 0x3e1507d83e2ceed4U, 0x3d6cd352bd8b927dU,
  0x3c814494bddae9f7U, 0x3da4451bbd730478U, 0x3d401fb4bdb87dc5U, 0x3da8e12fbd67be47U,
  0x3cd1a5ed3c0d23dfU, 0x3e12dd793d82761bU, 0xbcd23f1cbd252f71U, 0x3d8b3ae9bcf2a139U,
  0x3e16d9813d8ae9cfU, 0x3d9908163da9cbf9U, 0x3d8b71a13d273825U, 0x3defb843bdc76b8fU,
  0xbd8d1a2ebce176bdU, 0x3c7bac4c3e11eb47U, 0x3dc8cb61bd1fe506U, 0xbbdd9220be039e22U,
  0x3dbda11abd81f900U, 0x3da7274e3dfc3bdbU, 0x3dff0e793da0829eU, 0x3df753f7bdb87059U,
  0x3d86dc03bd84825fU, 0xbe05007dbc883797U, 0x3dd3edabbdb6bb68U, 0xbdffc6973d9d6a0bU,
  0x3d28f90a3d112061U, 0x3c89128a3d75ce6fU, 0xbe1b19d7bd44910eU, 0xbd65c2373dcdb211U,
  0x3d92a9ac3be0cc93U, 0x3ce182763de7f20dU, 0xbc0332f93decaed4U, 0x3dabe5f5bc65ac72U,
  0xbe0b47443d4ba192U, 0xbc7a15ca3de364edU, 0xbd0e70bbbd9fc20eU, 0xbe040c233c2370f1U,
  0x3d7899e4bdb782e1U, 0x3bab2da73d3eecf9U, 0x3d2755433dfd5f6cU, 0x3d9474e1bc828441U,
  0xbd969c3c3c8ed28fU, 0xbdaaa89bbd910383U, 0xbc332e9abd1eb031U, 0x3d7259c9bca77971U,
  0x3ca832683d62e94bU, 0x3de973e23cd0ea9eU, 0xbd9ede2cbd8638f3U, 0xbd79d026bd73c70dU,
  0xbd456757bd53fdc8U, 0x3d7ffcb5be094513U, 0xbcf853863d35d227U, 0x3e041a33bcc5ff01U,
  0x3df52df93b9686b0U, 0xbde3339e3e0fa8c2U, 0x3ddc0c1ebcd50824U, 0x3d491870bdae08a2U,
  0xbcb5ea36bcf2df47U, 0xbd67e679bd700d50U, 0xbde8fe18bdc6b785U, 0xbdd6fca43da1f700U,
  0x3c9e88903d9bd046U, 0xbd119a80bdb72440U, 0x3d88c3e7bc8268a0U, 0x3dd2ec66bde3faa6U,
  0x3de4f685bdd8496dU, 0x3c834c9fbdd75e00U, 0xbd38e5b2bd9cb007U, 0x3ca4a7b0bd5fdab3U,
  0xbdbefd483d9fa1a5U, 0x3c99ee42bd84afebU, 0xbd1d6b0dbd27b1eaU, 0xbdc489ca3c62af00U,
  0xbd4056d5bdf8856fU, 0x3df5cc7dbd99d945U, 0x3d9d1eb1bdf89ae7U, 0x3d9482d03cc48da3U,
  0xbd90412e3d225fc5U, 0xbd51ff093d6e11c1U, 0xbcfd5adebdc6d612U, 0x3d450407be1a295dU,
  0x3dbfb07cbc964b0fU, 0x3d90a37dbd3a6022U, 0xbd161311bda1af8aU, 0xbd89cdba3c2b9158U,
  0x3d33c49abda16f85U, 0xbdfc1826bd99d02dU, 0xbe1dd2d0be086891U, 0xbdb93e3cbded8c52U,
  0xbd8987f8be1869c3U, 0x3d9cad8c3dfa1f74U, 0xbd68d3d43daa201cU, 0xbd1e39f6bde9b782U,
  0x3cd4fd60bdc4ab25U, 0xbe04eb723b91d918U, 0xbdbdab2f3d9e3c0cU, 0xbd28c7febc2dcaf1U,
  0xbd9d08e2bdaa5e96U, 0xbd807ac5bd5cab06U, 0x3c300fb93d55ad36U, 0x3cf60a66be01ea2bU,
  0x3d8d8cc4bd7afebbU, 0x3dab44a93d841cf3U, 0x3dcd6846bddd2666U, 0xbd0647c8bd8842b0U,
  0x3dd89f073e100e61U, 0x3c0dfe8fbd01c853U, 0x3ce6d0b5bdd496c2U, 0xbd939fedbde9395cU,
  0xbd7871a9bde8ab72U, 0x3def0e46bdb45879U, 0x3db74e70bda4942cU, 0x3de6fe21bdac5477U,
  0xbd300f80bde0eabbU, 0x3d08db9cbd4c9e48U, 0x3db334633dbdef6cU, 0xbdb49859bda1577aU,
  0xbcb64582bb8b30b7U, 0xbd251417bde18806U, 0x3d09651cbd940d89U, 0x3d36fcedbd134fa8U,
  0xbda4c1313c9cc714U, 0x3d0ec1cebe209695U, 0x3db28c2bbda57a24U, 0xbdf56ea83d9b19d8U,
  0xbde8f8a53d7e46a2U, 0xbe0b9b213d260a9eU, 0x3e0baa1a3d2645c6U, 0x3d5ea0d2be2628efU,
  0xbd0dbceabcde2f9cU, 0x3dc6ce01bda8101bU, 0x3d63b6b33cde251bU, 0xbe0f82eebd187711U,
  0x3df9138c3c03dc72U, 0xbcb5c7dcbd5ee65dU, 0xbe02e5c93dfc4b52U, 0xb98facb83d820227U,
  0xbd7e17bcbe1d7624U, 0xbd044e19bd93009cU, 0xbc62757f3e0d9d99U, 0xbadeb7c9bcbaf466U,
  0xbd2fa95d3ce2ddd1U, 0xbdc048833e037901U, 0x3d68b6b73d1f6f0dU, 0xbe0836533d4467bbU,
  0xbc04505cbab1b16cU, 0xbdafb0d5bd8aa5b8U, 0xbdf1b5e23d8a02cbU, 0x3dc907f43da04690U,
  0xbdf9880ebda9eb4bU, 0x3c93b873bccc7e46U, 0x3dde1f20be04f769U, 0x3e077890bdf31bb0U,
  0x3d623ae73d561426U, 0x3e11703dbe04274eU, 0x3d894714be079873U, 0xbc3b0968bd46cea2U,
  0x3d442af23d5490deU, 0x3d503c50bdd51e8bU, 0xbc38f1073d51016cU, 0x3d54db163d697b46U,
  0x3d3b2942bddc6372U, 0xbcb0984c3c8bab96U, 0xbe0b02a8bc995577U, 0x3dc878fcbe0c55e9U,
  0xbd9012c6bdb53b87U, 0xbdc7d7513dd1af86U, 0x3e0f207c3d1659d8U, 0xbc1f7f3c3da18098U,
  0xbd9a8f80bd4f76b0U, 0x3d4bf407be12b875U, 0x3d5299f0bdba2a7dU, 0xbe060ebdbd11e079U,
  0x3d860e0abd9d6a86U, 0xbd9abe23bd388647U, 0xbd8eb2783d7670f7U, 0xbd9275c8bdd07c32U,
  0xbdcb28cebd54fbd8U, 0xbc6cae0ebde478ccU, 0xbe018dbabcc76ea2U, 0xbdb99658bde9ec8bU,
  0xbdc1d643bd14d113U, 0x3d900dad3bc7e173U, 0xbe25fe2fbda41a1cU, 0x3d625ea7bc42e2a8U,
  0xbd417b643cb42851U, 0x3da26ca23cfc9223U, 0xbdd64bef3d827fb7U, 0x3e0ad6c23c2199faU,
  0x3d56bf39bdb7333eU, 0x3c82681f3c3bdd2cU, 0xbdd2adf03c6fb446U, 0xbdf7827cbca57d74U,
  0xbd38b84e3dcf1a8fU, 0xbd30bea4ba7a3205U, 0xbd1973583b185d30U, 0xbd372f94be059f15U,
  0xbda26b60bd8d9ec5U, 0x3d82c9ff3da9e5ebU, 0xbd5d11e1bda30cefU, 0x3e00c23cbd67de5bU,
  0xbdc5fdf03c8e648aU, 0xbd9f3338bdaddfeaU, 0xbd15be4cbdc68b28U, 0xbe051ae53bd2682fU,
  0x3d41719f3ceab8d8U, 0xbdfc5ac63d55b97cU, 0x3daa7ecd3e07576aU, 0xbdb1d1653c9abc5aU,
  0x3df76f5c3cee5e51U, 0xbcbff0d53db5ced0U, 0x3ddc0138bbd6da87U, 0x3d247a063db1267cU,
  0x3df5d894bdb893f7U, 0xbda576643dedfe18U, 0x3d6bd7133d214682U, 0xbca9e1f93c9bc255U,
  0xbd9f5be1bdb8ba69U, 0x3dc52328be0a6d4eU, 0x3c589916bdbd8bd0U, 0x3ab86f3abcc2abfeU,
  0x3cb990f1bd961afcU, 0x3dc6995f3d149cd4U, 0xbd95c0783c30e70eU, 0xbd89fba73cb33239U,
  0x3dd0b7d3bc6f0fccU, 0x3e03b3d9bcfe2e60U, 0xbdf48a8bbde07ad5U, 0xbdf5dc39ba458702U,
  0x3bce108c3dfdce28U, 0xbdd7d7163ccc2ab4U, 0x3cab8044bdeb62f6U, 0xbdb52f003cf73b5bU,
  0x3d5d9e80bdcacb32U, 0xbd11394a3e08af04U, 0x3d4157a9bd0cefdaU, 0x3de634ec3d7ff86fU,
  0xbd10671ebd9f9c33U, 0x3e14ab51bd4ec994U, 0x3d186460bcf05869U, 0xbdb26e3abd13cc77U,
  0xbd6404a43c821c98U, 0xbd7f846abcccf156U, 0x3cdc53963d16a015U, 0xbc21432dbddbae13U,
  0xbe0a96d1bd75da07U, 0x3b60d3d13ccbdd57U, 0x3cf67347bd7b24c0U, 0x3dcfcc57be10ca27U,
  0x3df8ef123db24e9bU, 0x3e0a2311bd55c5a8U, 0x3e00fb4cbd309a9cU, 0x3c3a74033db278f0U,
  0xbc9c93e3bd72662bU, 0x3c5916c33dca6b07U, 0x3d7d76403d3ef7b9U, 0xbce1bb133d5d2423U,
  0xbd9bea343db30362U, 0xbd9e3d5dbd347e0fU, 0x3b9e1c2b3b8e1f92U, 0x3d119571be0f07beU,
  0x3dab7a8ebdb788e4U, 0x3dcc67183db9aefaU, 0xbc36cdca3dac47c2U, 0xbc1732eb3d5bb3e1U,
  0xbd6f74f7bd600ea2U, 0xbdf367813d93f11aU, 0xbda5d1ab3df56bc7U, 0xbd0579f5bd25939fU,
  0xbd534b443cfa51ccU, 0xbe0da9f2bd449a1fU, 0x3d717c773c947a30U, 0xbd6542b03dcd687cU,
  0x3de39363bd9bd7d5U, 0xbd3bbfcdbe07fea4U, 0xbd707754bcc3b60fU, 0xbc9ab0a1bd947969U,
  0xbd816fe33d85d134U, 0x3d49a91d3db02dfdU, 0x3d844d933dbac92aU, 0x3d64ee34bc9298e7U,
  0xbcfa0dd53de00e20U, 0xbdb13b753b01989cU, 0x3de418f23cd77cc0U, 0x3c2cbdd73dd4ba5cU,
  0x3c373dda3dbfbf43U, 0x3da928fb3d8814d7U, 0x3c826c9d3cffd2a8U, 0x3dbadea0bd2421adU,
  0xbd883d5a3dda1becU, 0xbb910a0d3de33882U, 0x3dd799a6bdd7ab67U, 0x3cbe8efcbc9287e9U,
  0xbdac68d93d9a85acU, 0xbd13b120bd0e2712U, 0x3e112341bdd2069dU, 0x3d867b9f3d4b3a14U,
  0xbe04e95dbdce7b95U, 0xbd307132bc1c24b9U, 0x3cf9a1a4bdfe9077U, 0x3d6583353e032a25U,
  0xbc0cdbb0be0b7c95U, 0x3ceeff943da62518U, 0xbdb160263d509b1aU, 0x3b21a12cbdee9767U,
  0x3cdf4e063dee9e47U, 0x3da4312d3df521e8U, 0x3dd66c233dfb2e7dU, 0x3ddfd4c7bdae872bU,
  0xbd2f2fe73e03b4c0U, 0x3e1010d73d0e71f8U, 0xbd87e7b7be0288b8U, 0xbd35f51d3dc2f97eU,
  0xbd598e0abd4006dbU, 0xbd2fea0cbd507528U, 0xbc5fc237bd0d2108U, 0x3e0359343c19eb55U,
  0xbd4340bbbdf9f928U, 0x3d1cecb7bd458e35U, 0x3db263553cc214d6U, 0xbdcb9be23d286254U,
  0xbdf05e90bdbd0ba5U, 0xbdb87c76bda8070aU, 0xbc389cfc3d9c0f0aU, 0xbddcbfe03c6d851bU,
  0x3d7577623dacb972U, 0x3d4a232b3dd65a3eU, 0x3da1118fbd3dbe5dU, 0x3d46b6c6bdc07b15U,
  0xbdd0b931bd49fd99U, 0x3d37603bba1d706fU, 0x3dbb8b0fbd062b0aU, 0x3d46b3523e00b547U,
  0xbd77237f3e033f46U, 0xbd5c4dedbd9aacecU, 0xbdac850cbccff912U, 0x3d8652903ded1f6bU,
  0x3dc246f23df7390bU, 0x3c2a4b7b3b7c929aU, 0xbe0624e4bdd4f83cU, 0xbcd455193d2e8362U,
  0x3dc4af12be0831f8U, 0xbcb084dc3d2dcbf3U, 0xbdbf38c6bdd3be56U, 0xb90bd520bcf6209aU,
  0x3d83d3053cc15559U, 0x3d8ab4e4bd923170U, 0xbdf732a43d3d0033U, 0xbc2d93233d3da777U,
  0xbda0c5333d9dd158U, 0xbd28eb3abc077548U, 0x3d8906ebbcef4279U, 0xbd59d2c5bd32d709U,
  0xbd5f4c573c26a29eU, 0xbe0514683e1b2901U, 0xbcb4157b3daa9c11U, 0x3d3d06bebe09e0eeU,
  0x3d75e3463d673af1U, 0x3d36b7dcbdef6908U, 0xbce15bf43b851966U, 0xbdd47ff13b364813U,
  0x3d9a844dbdafb807U, 0x3de5cba93dde48dbU, 0x3d4b5ff63b91a4fcU, 0x3c90c4363e037bc8U,
  0x3da54600bd69cdedU, 0xbdc48aa33c6102b4U, 0x3dd8154f3d2ea875U, 0xbbf6489abdcf85e7U,
  0x3dae2c173de776c5U, 0xbe003c9c3e135be3U, 0x3d753479bda5ae4fU, 0x3d4e69493cc35e33U,
  0x3d6b84bd3dc12821U, 0x3e00cd36bd88cb1dU, 0x3dfb8b883dee32e8U, 0xbd06bc29bd1f6747U,
  0xbd6cad8f3e005726U, 0x3e0ea16d3df55bd9U, 0xbc5e3a56bdca8c47U, 0x3d9793c5bda83a6cU,
  0x3e08c1133d8d0032U, 0xbd842dcdbb775fd3U, 0x3d46885fbca513c9U, 0x3dd1d3c9bdb8b4a7U,
  0x3d0fb3893d437e04U, 0xbc3285f83dab7108U, 0x3e213c413d249741U, 0x3e0b7ad0ba070659U,
  0x3d01e2f0bd9c6679U, 0x3e18023e3dac5b4dU, 0x3d9e12a3bddef15eU, 0x3ba32d173db93152U,
  0xbd08654bbde94f0fU, 0x3c07c2eebddbfad6U, 0x3dcd0edb3dc79bb7U, 0xbca096a0bd9fe739U,
  0x3d8caf103d80eb7fU, 0x3d0ebd89bd7c8b51U, 0x3d6edb93bdb117faU, 0x3da8f6973dc6fac2U,
  0x3b0006433e0a78a1U, 0x3ddf10283d958e08U, 0xbdff0d833d0ba231U, 0xbd0dc0c2bc4b3dbaU,
  0x3d963351bd15dbecU, 0x3d8aca1e3e1e2f5cU, 0xbdc0b8a63da5cd53U, 0xbd71e58d3d0e8afcU,
  0x3de1fd95bd3fcda7U, 0xbd8af7293e154fc9U, 0xbbb55ab1bdec45deU, 0x39a06625bd82e129U,
  0x3d786f0fbd4f4c08U, 0x3d2d040f3db4c8b3U, 0x3b3b62babdb26aacU, 0xbd37bb2c3dcef0c8U,
  0x3e1fe3ffbc009386U, 0x3c9872b83d928542U, 0x3d5ff73fbd58762aU, 0x3d97ea003df0997eU,
  0xbd9e10c63d64125aU, 0x3dd1d11f3c825bebU, 0x3c872f213cf4ded1U, 0xbdd98cf03e044146U,
  0x3ca127fcbd1bac58U, 0x3de67b6dbe01fd8cU, 0xbdc55d613e0e49aeU, 0xbdcbe9bf3e05c12dU,
  0x3d1f719f3df3e1ecU, 0xbd8d8356bdc40b14U, 0x3dfaee323c974615U, 0x3d0c750d3dc89b56U,
  0x3c39fe9e3ddc6506U, 0xbd8a7f2d3d36ddb1U, 0x3dbe93da3ccbde26U, 0xbd2f26523d4aad40U,
  0x3b6611aa3ce952deU, 0x3d3c68e83ddca7fcU, 0x3cb8f8153de3bac9U, 0x3e01eaa13e01ea2fU,
  0x3d65dc8b3dc77237U, 0xbdcd87f0bd407b38U, 0x3d928e21bdacc5fbU, 0x3e06bfb9bccfdff8U,
  0x3cb471833da6b99fU, 0xbdb8e2023d8d413aU, 0x3d864ebdbdbcf40eU, 0xbe0cd3993dc6c7b2U,
  0xbd4c04533d1130c0U, 0x3d8177303c714e56U, 0xbd9061abbc68fc20U, 0xbccf65393de81f07U,
  0x3d0acd773d984b87U, 0x3c9194363da78b14U, 0x3d2a6aeebca53d04U, 0x3e080d943c799f21U,
  0x3d1355423d8a32cfU, 0x3e12c0923d571c58U, 0x3dcad83fbcffcd75U, 0xbdbc9bff3ceb5d19U,
  0x3ddfae9e3d2bf360U, 0x3da409ffbcf9f1f3U, 0xbe20d4bbbd6f1ac7U, 0x3d879e7ebd8821a2U,
  0xbd2aac29bd938878U, 0xbdbabe9fbd099ab7U, 0xbc84d0f8be0538f5U, 0xbcd8eeb8bdf6ec34U,
  0x3d1e057fbda130d7U, 0x3d9ccb843daf4bedU, 0xbd133f7f3d7165c2U, 0xbde44ebd3cb778d8U,
  0xbdabda083ccd53ebU, 0xbe0327d1bd554ea1U, 0xbc3fa1d9bd884c5fU, 0xbd0c334ebd974ce7U,
  0xbdaf8c14bd4b48b2U, 0xbd7337c03e091df1U, 0xbdf5e0743b24b20cU, 0x3da0fe81bb87ef47U,
  0x3d756551bd0424a9U, 0xbda7b6213d2e7cadU, 0x3d2c2433be2644e7U, 0xbe0513493db0c0ecU,
  0xbcfbd4b13b39124aU, 0xbdb01933bdc7b70bU, 0x3d837751bdfe9961U, 0x3ca519a03aff4611U,
  0x3d5b8f1bbdccbbeaU, 0xbe18c1873dfc20a7U, 0xbd0b13db3c9528ebU, 0x3d84e95ebaf0965aU,
  0xbd7c53843e06d404U, 0xbd829787bcd3181cU, 0xbddf95e7bdae709dU, 0x3dadf6babd93e3eeU,
  0xbd922c513d2431eaU, 0xbd404d44bc1f9b0cU, 0xbda0026b3d3180f4U, 0xbd8dd3873d41aecfU,
  0xbd53af783cc1323cU, 0x3d838a383cb8abf7U, 0xbe29b10fbb3f4ebcU, 0x3bdb4f013da364c5U,
  0xbcfe1b64bd9d6c39U, 0xbdfcb594bdc3ce5bU, 0xbe131a07bde6f101U, 0xbd7c85c8bd9c781aU,
  0xbe0f26093d481bceU, 0xbd3a82773cf873f3U, 0xbdb3b4bcbdecdf77U, 0x3d1cb6af3bb8ce8aU,
  0xbdffdac03dff65eaU, 0x3e08c9b13db6e5d0U, 0x3d5a5c31bc5fc8eeU, 0xbe06d7ba3d3c0d41U,
  0x3dda54e1bde0d91fU, 0xbdd92391bdfdb96dU, 0xbe3063ef3dd29a94U, 0x3de478cd3d966058U,
  0xbe073b25bd754ba2U, 0xbe3c42823d77bae3U, 0x3df98c803d8d2f4eU, 0xbd87155d3c0d5b58U,
  0xbd8f9a0f3d632bf5U, 0xbdb72098bd4a3c13U, 0xbda11704bd9597abU, 0x3d9974b43e0d5ffbU,
  0x3d2d3995bd680d2fU, 0xbe17365fbe346c80U, 0x3c6d52453e0206d3U, 0x3d85eedabdb77172U,
  0xbd866f223d3a3d22U, 0xbe209d1a3df1abcaU, 0x3dac63e5bce40e8fU, 0x3d1dbdcc3d1d0112U,
  0xbc84b3f2bdd7bfacU, 0xbcd7d5923d3d392aU, 0x3dafbb1e3d948ac6U, 0x3da37e4f3e0cfd4eU,
  0x3d98b7293ce001aaU, 0xbd9f2334bdca773fU, 0xbd99f3853ce445faU, 0x3e0978503d970087U,
  0xbdb0de103cf16b60U, 0xbdd533463e089665U, 0xbdb965b0be1312d9U, 0xbdff5d913d6ba846U,
  0xbd43bde3bdce4519U, 0xbd02fe613c22346aU, 0xbdd39709be0030abU, 0xbcf25e8fbb66d1b2U,
  0xbc0b6ad4bdf0965eU, 0xbd00979bbac5fd9bU, 0xbd90e9793dda4bc6U, 0x3d9a14c3bd71a4cfU,
  0x3ca4f023bd168baaU, 0xbc190c2fbd9ad806U, 0xbd28a0cbbd542e4eU, 0xbe010eabbda2a6aaU,
  0x3d7d827bbddd53b8U, 0x3d9c65c4bd82e985U, 0xbe096a5a3d929340U, 0x3c4136043d9e3030U,
  0xbc01f50bbdfac76cU, 0x3d1a8fa33cb844f3U, 0x3dcd5ec8bdcf7c14U, 0x3e0addd9bd4cb1d0U,
  0x3d9ef7b9bd4f9636U, 0xbd412cdcbd97ad0cU, 0x3d47ad223c9fafc4U, 0x3a2cd8723d47e23aU,
  0x3dc5c2773c9cbb1aU, 0xbdb503433c5c6dfbU, 0x3db264febdedfe24U, 0xbe2095f23dee1a93U,
  0x3de8963d3dbd935bU, 0x3c11850d3d23bbdbU, 0xbd8fa30cbca125dfU, 0xbda523383cd996fbU,
  0xbe067ce5bd9fab6eU, 0xbe1adc103e0e7cabU, 0x3d621f43bd6446d9U, 0xbdb66c24be21d042U,
  0xbde1d5053cbe37d5U, 0xbddfa08e3d6a4eaeU, 0x3dcdc93c3ccedc65U, 0x3d27732abb092ac4U,
  0x3d1d9164bd77b69fU, 0xbe01b0d8bdfc9acbU, 0x3b78c5eabd213c70U, 0x3d2e167d3da807b6U,
  0xbd06b5123d9b3673U, 0xbc011eb83da3c18bU, 0x3daff7433d214b1bU, 0x3d8e6679bd32abcbU,
  0xbdc9b88a3d60c150U, 0x3cf00524bd8bc1c0U, 0x3d03995ebe0a2bfdU, 0xbe1201df3debac46U,
  0xbbc03a603dedd3b9U, 0x3d5fc67fbd61f88bU, 0x3d9083253d8f2396U, 0xbdafb0b53c3a3cd3U,
  0xbd90c96fbcda1491U, 0x3db9391b3d55f465U, 0x3d4e7f23bc4fa057U, 0xbdd7d43e3d68afbdU,
